/* Auto-generated by scripts/tflite_to_c_array.py */
#include "mnist_tiny_model_data.h"

const unsigned char g_mnist_tiny_int8_model[] = {
    0x1c, 0x00, 0x00, 0x00, 0x54, 0x46, 0x4c, 0x33, 0x14, 0x00, 0x20, 0x00,
    0x1c, 0x00, 0x18, 0x00, 0x14, 0x00, 0x10, 0x00, 0x0c, 0x00, 0x00, 0x00,
    0x08, 0x00, 0x04, 0x00, 0x14, 0x00, 0x00, 0x00, 0x1c, 0x00, 0x00, 0x00,
    0x8c, 0x00, 0x00, 0x00, 0xe4, 0x00, 0x00, 0x00, 0x44, 0x45, 0x00, 0x00,
    0x54, 0x45, 0x00, 0x00, 0x5c, 0x66, 0x00, 0x00, 0x03, 0x00, 0x00, 0x00,
    0x01, 0x00, 0x00, 0x00, 0x04, 0x00, 0x00, 0x00, 0xaa, 0xb9, 0xff, 0xff,
    0x0c, 0x00, 0x00, 0x00, 0x1c, 0x00, 0x00, 0x00, 0x3c, 0x00, 0x00, 0x00,
    0x0f, 0x00, 0x00, 0x00, 0x73, 0x65, 0x72, 0x76, 0x69, 0x6e, 0x67, 0x5f,
    0x64, 0x65, 0x66, 0x61, 0x75, 0x6c, 0x74, 0x00, 0x01, 0x00, 0x00, 0x00,
    0x04, 0x00, 0x00, 0x00, 0x90, 0xff, 0xff, 0xff, 0x1c, 0x00, 0x00, 0x00,
    0x04, 0x00, 0x00, 0x00, 0x08, 0x00, 0x00, 0x00, 0x6f, 0x75, 0x74, 0x70,
    0x75, 0x74, 0x5f, 0x30, 0x00, 0x00, 0x00, 0x00, 0x01, 0x00, 0x00, 0x00,
    0x04, 0x00, 0x00, 0x00, 0xb2, 0xb9, 0xff, 0xff, 0x04, 0x00, 0x00, 0x00,
    0x0c, 0x00, 0x00, 0x00, 0x6b, 0x65, 0x72, 0x61, 0x73, 0x5f, 0x74, 0x65,
    0x6e, 0x73, 0x6f, 0x72, 0x00, 0x00, 0x00, 0x00, 0x02, 0x00, 0x00, 0x00,
    0x34, 0x00, 0x00, 0x00, 0x04, 0x00, 0x00, 0x00, 0xdc, 0xff, 0xff, 0xff,
    0x1f, 0x00, 0x00, 0x00, 0x04, 0x00, 0x00, 0x00, 0x13, 0x00, 0x00, 0x00,
    0x43, 0x4f, 0x4e, 0x56, 0x45, 0x52, 0x53, 0x49, 0x4f, 0x4e, 0x5f, 0x4d,
    0x45, 0x54, 0x41, 0x44, 0x41, 0x54, 0x41, 0x00, 0x08, 0x00, 0x0c, 0x00,
    0x08, 0x00, 0x04, 0x00, 0x08, 0x00, 0x00, 0x00, 0x1e, 0x00, 0x00, 0x00,
    0x04, 0x00, 0x00, 0x00, 0x13, 0x00, 0x00, 0x00, 0x6d, 0x69, 0x6e, 0x5f,
    0x72, 0x75, 0x6e, 0x74, 0x69, 0x6d, 0x65, 0x5f, 0x76, 0x65, 0x72, 0x73,
    0x69, 0x6f, 0x6e, 0x00, 0x20, 0x00, 0x00, 0x00, 0x5c, 0x44, 0x00, 0x00,
    0x54, 0x44, 0x00, 0x00, 0x40, 0x44, 0x00, 0x00, 0x2c, 0x44, 0x00, 0x00,
    0x18, 0x44, 0x00, 0x00, 0xe0, 0x43, 0x00, 0x00, 0x00, 0x41, 0x00, 0x00,
    0x90, 0x22, 0x00, 0x00, 0x50, 0x22, 0x00, 0x00, 0x20, 0x21, 0x00, 0x00,
    0xb0, 0x20, 0x00, 0x00, 0x60, 0x0c, 0x00, 0x00, 0xf0, 0x0b, 0x00, 0x00,
    0xc0, 0x01, 0x00, 0x00, 0x80, 0x01, 0x00, 0x00, 0x04, 0x01, 0x00, 0x00,
    0xfc, 0x00, 0x00, 0x00, 0xf4, 0x00, 0x00, 0x00, 0xec, 0x00, 0x00, 0x00,
    0xe4, 0x00, 0x00, 0x00, 0xdc, 0x00, 0x00, 0x00, 0xd4, 0x00, 0x00, 0x00,
    0xcc, 0x00, 0x00, 0x00, 0xc4, 0x00, 0x00, 0x00, 0xbc, 0x00, 0x00, 0x00,
    0xb4, 0x00, 0x00, 0x00, 0xac, 0x00, 0x00, 0x00, 0xa4, 0x00, 0x00, 0x00,
    0x9c, 0x00, 0x00, 0x00, 0x94, 0x00, 0x00, 0x00, 0x74, 0x00, 0x00, 0x00,
    0x04, 0x00, 0x00, 0x00, 0xae, 0xba, 0xff, 0xff, 0x04, 0x00, 0x00, 0x00,
    0x60, 0x00, 0x00, 0x00, 0x0c, 0x00, 0x00, 0x00, 0x08, 0x00, 0x0e, 0x00,
    0x08, 0x00, 0x04, 0x00, 0x08, 0x00, 0x00, 0x00, 0x10, 0x00, 0x00, 0x00,
    0x28, 0x00, 0x00, 0x00, 0x00, 0x00, 0x06, 0x00, 0x08, 0x00, 0x04, 0x00,
    0x06, 0x00, 0x00, 0x00, 0x04, 0x00, 0x00, 0x00, 0x01, 0x00, 0x00, 0x00,
    0xeb, 0x03, 0x00, 0x00, 0x0c, 0x00, 0x18, 0x00, 0x14, 0x00, 0x10, 0x00,
    0x0c, 0x00, 0x04, 0x00, 0x0c, 0x00, 0x00, 0x00, 0x00, 0x7b, 0xe7, 0xa8,
    0x81, 0x77, 0xb7, 0x57, 0x02, 0x00, 0x00, 0x00, 0x02, 0x00, 0x00, 0x00,
    0x04, 0x00, 0x00, 0x00, 0x06, 0x00, 0x00, 0x00, 0x32, 0x2e, 0x32, 0x31,
    0x2e, 0x30, 0x00, 0x00, 0x1a, 0xbb, 0xff, 0xff, 0x04, 0x00, 0x00, 0x00,
    0x10, 0x00, 0x00, 0x00, 0x31, 0x2e, 0x31, 0x34, 0x2e, 0x30, 0x00, 0x00,
    0x00, 0x00, 0x00, 0x00, 0x00, 0x00, 0x00, 0x00, 0x78, 0x9c, 0xff, 0xff,
    0x7c, 0x9c, 0xff, 0xff, 0x80, 0x9c, 0xff, 0xff, 0x84, 0x9c, 0xff, 0xff,
    0x88, 0x9c, 0xff, 0xff, 0x8c, 0x9c, 0xff, 0xff, 0x90, 0x9c, 0xff, 0xff,
    0x94, 0x9c, 0xff, 0xff, 0x98, 0x9c, 0xff, 0xff, 0x9c, 0x9c, 0xff, 0xff,
    0xa0, 0x9c, 0xff, 0xff, 0xa4, 0x9c, 0xff, 0xff, 0xa8, 0x9c, 0xff, 0xff,
    0xac, 0x9c, 0xff, 0xff, 0x6e, 0xbb, 0xff, 0xff, 0x04, 0x00, 0x00, 0x00,
    0x6c, 0x00, 0x00, 0x00, 0x38, 0x0c, 0xe9, 0x39, 0xc5, 0x7f, 0x39, 0x4f,
    0xe2, 0x20, 0x17, 0x81, 0x24, 0x55, 0x9d, 0xf5, 0x4d, 0x12, 0x1f, 0x3b,
    0x3c, 0xa8, 0x07, 0x59, 0xd4, 0x81, 0xb5, 0xbe, 0xe4, 0x1e, 0xfb, 0x7f,
    0x0d, 0x1f, 0xe8, 0xc0, 0x26, 0x33, 0x1b, 0xe1, 0x33, 0x3a, 0x81, 0xda,
    0x37, 0x82, 0x95, 0x7c, 0x9c, 0x2c, 0x59, 0x81, 0x00, 0x45, 0x62, 0x1d,
    0x2d, 0xe9, 0x1b, 0x83, 0x81, 0xa2, 0xd2, 0xb8, 0xa7, 0xc9, 0xc5, 0xfb,
    0x33, 0x21, 0x1e, 0x7f, 0x53, 0x81, 0xc0, 0x59, 0xa2, 0xbd, 0x63, 0x1d,
    0x51, 0xac, 0xde, 0xc4, 0x03, 0xd8, 0x81, 0x03, 0x1f, 0xd0, 0x0b, 0xf6,
    0xad, 0xff, 0x7f, 0xfe, 0xb3, 0x05, 0x1a, 0x7a, 0x41, 0x4e, 0x6f, 0x0b,
    0x90, 0xdf, 0x81, 0x9d, 0xe6, 0xbb, 0xff, 0xff, 0x04, 0x00, 0x00, 0x00,
    0x30, 0x00, 0x00, 0x00, 0xf3, 0xe7, 0xff, 0xff, 0x93, 0xf7, 0xff, 0xff,
    0x6d, 0x09, 0x00, 0x00, 0x5e, 0xf6, 0xff, 0xff, 0x72, 0x01, 0x00, 0x00,
    0x40, 0xdf, 0xff, 0xff, 0xcf, 0x15, 0x00, 0x00, 0xbd, 0xf8, 0xff, 0xff,
    0x66, 0x0d, 0x00, 0x00, 0xe3, 0x1f, 0x00, 0x00, 0x07, 0xff, 0xff, 0xff,
    0xc0, 0x06, 0x00, 0x00, 0x22, 0xbc, 0xff, 0xff, 0x04, 0x00, 0x00, 0x00,
    0x20, 0x0a, 0x00, 0x00, 0xf9, 0xbf, 0xf2, 0x15, 0x17, 0xea, 0x14, 0xee,
    0x92, 0xe8, 0xcc, 0xf0, 0x2e, 0xec, 0xeb, 0x04, 0xf1, 0x06, 0xd4, 0x02,
    0xda, 0x08, 0xd2, 0x1e, 0xf0, 0xf7, 0x20, 0xd1, 0xba, 0xeb, 0x36, 0xd0,
    0x17, 0x23, 0xc7, 0xfe, 0xaa, 0xd4, 0x1d, 0x08, 0x21, 0x1e, 0xd6, 0xd1,
    0x8e, 0xef, 0xf4, 0xce, 0x37, 0x13, 0xf9, 0x07, 0xef, 0xfd, 0xf9, 0x2c,
    0x30, 0xbe, 0x31, 0x30, 0xe0, 0x20, 0xde, 0xde, 0x9c, 0xd0, 0xea, 0xcd,
    0x15, 0x3a, 0xee, 0xf6, 0x81, 0xd9, 0x2b, 0xcf, 0x30, 0xf0, 0xf4, 0xe0,
    0xb2, 0xfb, 0x26, 0xc1, 0x68, 0xf2, 0xed, 0x00, 0x12, 0x00, 0x29, 0x4e,
    0xfb, 0xcf, 0x1e, 0x07, 0xe4, 0xfc, 0xe7, 0xf7, 0xaa, 0xf2, 0xe3, 0xa5,
    0x39, 0x24, 0xce, 0x03, 0x36, 0x30, 0xf5, 0xe4, 0x06, 0xf0, 0xfc, 0xd5,
    0x43, 0xeb, 0xeb, 0x09, 0xd7, 0xdc, 0x2c, 0xfa, 0xe6, 0x8e, 0x0f, 0xc3,
    0xf1, 0x03, 0xba, 0xe6, 0xb0, 0xb8, 0x13, 0xae, 0x0f, 0xf0, 0xff, 0x8f,
    0xc9, 0x1a, 0xa9, 0xef, 0x97, 0x81, 0xe8, 0xce, 0xf1, 0x03, 0x0d, 0xeb,
    0xe0, 0x50, 0xb8, 0xf8, 0xf6, 0xbf, 0xde, 0x36, 0xf9, 0x14, 0x1b, 0x33,
    0xd6, 0xe8, 0x20, 0xea, 0x37, 0x33, 0xd9, 0xda, 0xfa, 0xd3, 0xce, 0x30,
    0x2b, 0xc8, 0x48, 0xa3, 0x9c, 0xad, 0xf4, 0x81, 0x24, 0x1b, 0xf6, 0x00,
    0xfa, 0x33, 0xf7, 0xd6, 0x45, 0x6b, 0xeb, 0x08, 0x1a, 0xf1, 0xe4, 0xdf,
    0x14, 0xd5, 0x28, 0xfa, 0xe1, 0xf1, 0x33, 0x05, 0x0c, 0x16, 0x25, 0xdc,
    0x2a, 0xeb, 0xd4, 0x51, 0x81, 0xf0, 0x02, 0xcd, 0xb0, 0xe6, 0x06, 0xe2,
    0xdd, 0x15, 0xb3, 0xab, 0xb1, 0xdb, 0x15, 0xed, 0x1d, 0x1f, 0xe4, 0xca,
    0xc2, 0xf5, 0xfd, 0xcf, 0x00, 0xd3, 0xd9, 0x1b, 0x0e, 0x2a, 0xf7, 0xfd,
    0xc0, 0x0d, 0xf4, 0x2a, 0x10, 0xf7, 0xfb, 0x22, 0xdb, 0xe8, 0x1b, 0x18,
    0xd5, 0xfa, 0x1e, 0xce, 0xde, 0x28, 0x24, 0xcf, 0xcd, 0xce, 0x04, 0xe9,
    0x2a, 0xfe, 0xff, 0xe6, 0xc4, 0xe6, 0x1a, 0xe6, 0xdf, 0xe0, 0xfb, 0xd8,
    0xe5, 0x11, 0xe2, 0xf0, 0x26, 0x18, 0xe0, 0xee, 0x32, 0x19, 0xeb, 0x10,
    0x28, 0x0d, 0x2c, 0xfc, 0x2a, 0x19, 0xf8, 0xf7, 0x08, 0xe7, 0xe3, 0x05,
    0x19, 0xfa, 0xfe, 0xe7, 0x35, 0x00, 0x07, 0x0a, 0x1a, 0xf8, 0xf3, 0x28,
    0x30, 0xd7, 0x1f, 0xe2, 0xf9, 0x00, 0x47, 0xf5, 0xb2, 0xe5, 0xf6, 0x2f,
    0x34, 0x10, 0x23, 0xda, 0xf6, 0xe1, 0x1d, 0x05, 0x44, 0xab, 0xfc, 0xf4,
    0x0f, 0x03, 0x17, 0xd9, 0x34, 0xfd, 0xca, 0xe7, 0x2b, 0x03, 0xae, 0x18,
    0xff, 0xb1, 0x17, 0x0c, 0xf3, 0x8e, 0x42, 0xf7, 0x12, 0xcc, 0x62, 0x0f,
    0xe3, 0x0a, 0x05, 0x24, 0x15, 0xbe, 0xaf, 0xff, 0x4a, 0xde, 0xa3, 0xda,
    0xad, 0xc5, 0xe3, 0xd7, 0xf8, 0x15, 0xd0, 0x0f, 0xce, 0x31, 0x02, 0x01,
    0xe2, 0xa9, 0xda, 0x25, 0x25, 0xa0, 0xee, 0x69, 0x1c, 0x32, 0x2f, 0x45,
    0xa9, 0x3e, 0x03, 0xd8, 0xdb, 0x29, 0xf2, 0x01, 0xee, 0x35, 0xbb, 0xdb,
    0xea, 0x99, 0xcc, 0xcd, 0x0f, 0x2d, 0x0a, 0xdf, 0xdb, 0x7f, 0xf1, 0xae,
    0x4d, 0xb2, 0x23, 0x37, 0xf6, 0x13, 0x2b, 0xf7, 0x21, 0x2e, 0x11, 0xce,
    0xf8, 0xf5, 0xfe, 0x0b, 0x44, 0x12, 0xd9, 0xe6, 0xf5, 0xef, 0xb0, 0xd4,
    0x0d, 0x1e, 0x16, 0xf9, 0xdf, 0xfc, 0xe2, 0x28, 0xa3, 0xd1, 0xf4, 0x02,
    0x40, 0x2d, 0x09, 0xfd, 0xc4, 0xf2, 0x03, 0xcd, 0xeb, 0x3b, 0x15, 0xed,
    0xbc, 0xd9, 0x04, 0xfe, 0x1e, 0x03, 0xfa, 0xbb, 0x3e, 0x1d, 0x0a, 0xf9,
    0xf8, 0xca, 0x4d, 0x06, 0x36, 0x0f, 0x0c, 0x11, 0xf2, 0xf8, 0x12, 0x28,
    0x3b, 0xd6, 0xe6, 0x10, 0x81, 0xb4, 0xda, 0xe0, 0xc9, 0x0e, 0x1a, 0x0c,
    0xc3, 0x4a, 0xc8, 0xe7, 0xd3, 0xb3, 0xe6, 0xe0, 0xf7, 0xf8, 0xfe, 0xe5,
    0xa0, 0x1a, 0xdf, 0xdb, 0xfc, 0x09, 0x56, 0xe4, 0x3d, 0x0c, 0xf7, 0xdc,
    0xda, 0x07, 0x26, 0x0c, 0xe0, 0x81, 0x1f, 0x17, 0xe9, 0xda, 0x23, 0xe9,
    0xe1, 0x1b, 0xdf, 0x08, 0x34, 0xc7, 0xf2, 0xf2, 0x23, 0xd0, 0xd3, 0x28,
    0xaa, 0xe6, 0xed, 0x09, 0x0f, 0xe0, 0xe7, 0x06, 0xf0, 0x09, 0x07, 0xef,
    0xdf, 0x0e, 0xbe, 0x21, 0xcf, 0x8e, 0xdd, 0xca, 0x2b, 0x00, 0xdd, 0xf6,
    0xcd, 0xd2, 0xed, 0xa7, 0x38, 0x13, 0x1c, 0x20, 0x25, 0xed, 0xe2, 0x07,
    0x00, 0xb3, 0x2f, 0xfa, 0xd3, 0x41, 0xda, 0xfb, 0xb4, 0x07, 0x12, 0x95,
    0x36, 0x3e, 0x04, 0x19, 0xdf, 0xe3, 0xd9, 0xc7, 0x00, 0xff, 0xc6, 0xfc,
    0xdd, 0xde, 0xee, 0xa6, 0x5d, 0x1b, 0x51, 0x1f, 0xea, 0x10, 0x1d, 0xff,
    0x21, 0xcf, 0x08, 0xfb, 0x89, 0xfe, 0xdb, 0xb6, 0xa5, 0xf1, 0x27, 0xb7,
    0x21, 0x5a, 0xec, 0x30, 0xdb, 0xd2, 0x48, 0xef, 0x10, 0xb6, 0x3f, 0xd1,
    0x00, 0x05, 0xd3, 0x28, 0xcd, 0xc2, 0x25, 0xc7, 0x33, 0x04, 0xf8, 0xac,
    0xd9, 0xf6, 0xc8, 0x0f, 0x12, 0x97, 0xf1, 0x44, 0x17, 0x23, 0x17, 0x29,
    0x8a, 0xd2, 0x05, 0x5f, 0x26, 0xe4, 0x93, 0x15, 0x9f, 0xcc, 0x17, 0x4d,
    0x08, 0xec, 0xea, 0xab, 0xff, 0x2c, 0xd0, 0xa9, 0x97, 0x88, 0x3d, 0x13,
    0x29, 0x19, 0x41, 0xa1, 0xc7, 0xdb, 0x03, 0x9f, 0xc1, 0xb5, 0xe1, 0xd7,
    0x07, 0x0a, 0xd8, 0x81, 0x09, 0x10, 0xfd, 0x27, 0x16, 0x2b, 0xc6, 0xdd,
    0xd3, 0x10, 0xc6, 0x07, 0x20, 0x22, 0xf7, 0x04, 0x4b, 0x3f, 0xbc, 0xec,
    0xf2, 0xed, 0x25, 0xea, 0x05, 0x1c, 0x3e, 0xf6, 0x1f, 0x0b, 0xd3, 0xfb,
    0x18, 0x24, 0x22, 0xf7, 0x15, 0x17, 0x01, 0x04, 0xd1, 0xdb, 0xc9, 0xf7,
    0x22, 0x0d, 0xf4, 0xd2, 0xf4, 0xe2, 0xd6, 0x0d, 0xdc, 0xde, 0xe8, 0xef,
    0x0b, 0x1d, 0x2b, 0xdd, 0x34, 0x03, 0xf0, 0xe9, 0xe4, 0xe8, 0xc5, 0x34,
    0x36, 0xe4, 0x22, 0xaa, 0xee, 0xf4, 0xf2, 0xa8, 0x5f, 0xf2, 0x1b, 0xcc,
    0xbb, 0xaf, 0x58, 0x30, 0x1d, 0x22, 0x0c, 0x28, 0x3a, 0x2f, 0xdb, 0xf6,
    0xf4, 0xbb, 0x03, 0x1b, 0xe2, 0xc2, 0x00, 0x31, 0x2b, 0xea, 0xe0, 0xaa,
    0xb8, 0xdd, 0x9e, 0x4e, 0xd4, 0xf3, 0x3a, 0x81, 0xd1, 0xeb, 0xfa, 0xe9,
    0x26, 0x4e, 0xcb, 0xbc, 0xf9, 0xc5, 0x2e, 0xd0, 0xf3, 0xec, 0x5d, 0x1a,
    0x0d, 0x2a, 0xbf, 0x15, 0xfe, 0xe8, 0xa2, 0x0e, 0xde, 0x07, 0x14, 0x30,
    0xea, 0x32, 0xc4, 0xe5, 0x7e, 0x1a, 0x36, 0x12, 0x7f, 0x18, 0x13, 0x0d,
    0x3d, 0xa2, 0xe0, 0x38, 0xf0, 0x0f, 0x12, 0xcc, 0x34, 0xec, 0xf4, 0xef,
    0x03, 0xe4, 0x20, 0x1a, 0xa5, 0xe3, 0xfd, 0x87, 0xb5, 0xf2, 0xfa, 0xd7,
    0x36, 0x33, 0xc3, 0xf8, 0xcc, 0xe5, 0x51, 0x12, 0x1f, 0xf9, 0x15, 0xe8,
    0xf4, 0x0c, 0x24, 0x1f, 0xa7, 0xb5, 0xdb, 0xfb, 0xcd, 0xd3, 0x06, 0xdf,
    0xbe, 0x0f, 0xc8, 0x1a, 0xb4, 0xba, 0xa8, 0xc7, 0xac, 0xc9, 0x0d, 0xf6,
    0xd9, 0x3c, 0xcb, 0xba, 0xf9, 0x00, 0x0c, 0xb9, 0xce, 0xa6, 0xf4, 0xd4,
    0x04, 0x27, 0x0d, 0x96, 0xf7, 0x14, 0xe4, 0xf8, 0xbd, 0xca, 0xd0, 0xf9,
    0xe7, 0xef, 0x13, 0x92, 0x46, 0xd0, 0xb2, 0xce, 0x3c, 0x13, 0xdf, 0x2d,
    0x26, 0xd9, 0xd6, 0x98, 0x30, 0xd0, 0xd2, 0x1c, 0x00, 0xdd, 0xc0, 0x13,
    0xf6, 0xad, 0xd4, 0x21, 0xe6, 0xd8, 0xfa, 0x6f, 0x01, 0xda, 0x07, 0x13,
    0xcd, 0x97, 0xf5, 0x23, 0xfa, 0x4f, 0xc5, 0xe4, 0x6e, 0x25, 0xac, 0xbb,
    0x2a, 0xc9, 0x5a, 0xb5, 0xf2, 0x54, 0x16, 0x93, 0x01, 0x44, 0xac, 0xd4,
    0x0d, 0xd0, 0x15, 0xcb, 0x0c, 0xf1, 0xd9, 0x3e, 0xad, 0xd2, 0x07, 0x20,
    0x4c, 0xc9, 0xf2, 0x08, 0x1a, 0xf1, 0xee, 0x34, 0xd1, 0xdd, 0xfa, 0x03,
    0xf6, 0x88, 0xc9, 0x12, 0xf4, 0x01, 0x0b, 0x81, 0x1c, 0xf4, 0x01, 0xe2,
    0xe0, 0xf7, 0x38, 0xf3, 0xfd, 0xe4, 0x20, 0xd0, 0x1f, 0xb6, 0x05, 0xec,
    0xea, 0xf8, 0xff, 0xf7, 0xf6, 0xd9, 0x22, 0x31, 0x01, 0xd9, 0x27, 0x39,
    0xed, 0xee, 0xd3, 0x3c, 0x3e, 0x24, 0xec, 0xb0, 0x1a, 0xf2, 0xd8, 0xe1,
    0x20, 0xf8, 0x31, 0xd6, 0xab, 0xf9, 0x0f, 0xd9, 0xc7, 0x14, 0x0a, 0xd4,
    0x0a, 0x42, 0xd3, 0xd1, 0x19, 0xc0, 0xfb, 0x06, 0x10, 0x32, 0xdc, 0x12,
    0xc1, 0x15, 0xd7, 0x81, 0x4c, 0x24, 0xc0, 0x03, 0xe7, 0x39, 0xeb, 0x04,
    0xfb, 0xdd, 0xfc, 0x24, 0xbf, 0xfe, 0x0e, 0xb8, 0xd3, 0x3c, 0x07, 0xc6,
    0x29, 0xf1, 0xa8, 0x06, 0x20, 0xdb, 0x15, 0xdf, 0x32, 0x1b, 0xe0, 0x24,
    0xbd, 0xdd, 0x15, 0x9e, 0x1d, 0x10, 0xa9, 0x32, 0xb5, 0x33, 0xf1, 0xb0,
    0xef, 0xf6, 0xdd, 0x44, 0xda, 0xe9, 0x06, 0xa4, 0xe8, 0x15, 0x19, 0x28,
    0x50, 0x02, 0xc2, 0xcc, 0x4c, 0x1f, 0x18, 0xd1, 0x3e, 0xe8, 0xe7, 0x0c,
    0xac, 0xf5, 0x23, 0xa2, 0x55, 0x2c, 0x26, 0x03, 0x12, 0xf3, 0x02, 0xa2,
    0xe6, 0xbc, 0x9f, 0x11, 0x81, 0xf3, 0xfb, 0xde, 0xc9, 0xc3, 0xf5, 0xd0,
    0x05, 0x34, 0xbd, 0x18, 0xfe, 0xb7, 0xa5, 0xe1, 0xe9, 0xcd, 0xfd, 0x59,
    0x45, 0x20, 0x0a, 0xc8, 0x9a, 0xdb, 0x01, 0xd2, 0xd0, 0xcc, 0x42, 0xe3,
    0x11, 0x0a, 0x99, 0x42, 0xf7, 0xb6, 0xad, 0x1e, 0xfd, 0x06, 0xb9, 0x12,
    0x17, 0xf1, 0x30, 0xa1, 0x3d, 0x81, 0x23, 0x50, 0x12, 0x13, 0x1b, 0xfe,
    0xd1, 0xd3, 0xde, 0x29, 0xb8, 0xc6, 0xe6, 0xb5, 0xd3, 0x3c, 0xf6, 0xc7,
    0x0a, 0x1c, 0xb8, 0xf3, 0x19, 0xe3, 0x19, 0xd5, 0x66, 0x02, 0xe9, 0x34,
    0xf8, 0xd8, 0x4b, 0xbe, 0x16, 0x31, 0x22, 0xfd, 0x19, 0x2d, 0x00, 0xee,
    0xfa, 0x28, 0x04, 0x0b, 0x15, 0x16, 0x01, 0xd5, 0x46, 0x1b, 0x0e, 0xd3,
    0x1e, 0xf1, 0x59, 0xe9, 0x68, 0xf5, 0x04, 0x0c, 0xfa, 0xe9, 0x14, 0xec,
    0x0b, 0xfa, 0xff, 0xfd, 0x3d, 0xe7, 0x2b, 0x2b, 0x23, 0xd7, 0x13, 0x3b,
    0xf4, 0xbe, 0xe7, 0x4d, 0x81, 0xa6, 0x57, 0xb9, 0x07, 0xd1, 0xfe, 0xda,
    0xb4, 0x20, 0x0a, 0xe7, 0xd1, 0xa5, 0x43, 0xdf, 0xef, 0xea, 0xeb, 0xd2,
    0x99, 0x22, 0xe4, 0x1d, 0xf1, 0xef, 0x03, 0xf3, 0x46, 0x2b, 0xe8, 0xa4,
    0xa4, 0xf2, 0xf7, 0xf7, 0xe4, 0x02, 0xbe, 0xea, 0xe0, 0x0a, 0xfe, 0x1a,
    0x12, 0x2d, 0x09, 0x9e, 0x00, 0xff, 0x9d, 0xea, 0xde, 0x0c, 0xf5, 0x24,
    0x41, 0xce, 0xf5, 0xba, 0x0c, 0xf0, 0xb3, 0x05, 0xc4, 0x04, 0xf8, 0x2d,
    0x0d, 0xe9, 0xec, 0x22, 0x25, 0x33, 0x0c, 0x39, 0xe6, 0xf2, 0xa7, 0x2c,
    0x3c, 0x14, 0xe7, 0xc6, 0xe4, 0x11, 0xf2, 0xd8, 0x00, 0x24, 0xc0, 0xf2,
    0x10, 0xcf, 0xf0, 0xbb, 0xed, 0xff, 0xb4, 0x2f, 0xd3, 0x1e, 0x10, 0x19,
    0x43, 0xf8, 0xdb, 0x39, 0x00, 0xd3, 0xff, 0xd0, 0x3c, 0xcc, 0xe4, 0xbb,
    0xcd, 0xd6, 0x24, 0x0e, 0x03, 0x15, 0x27, 0xbf, 0x2e, 0xba, 0xcf, 0xad,
    0xf6, 0xa3, 0x3f, 0xd1, 0x46, 0x19, 0x14, 0xbe, 0x48, 0x81, 0xab, 0xc7,
    0xfb, 0x03, 0x57, 0x85, 0xf9, 0xbf, 0xe9, 0x63, 0xf0, 0x0a, 0x39, 0x3d,
    0xdd, 0x00, 0xab, 0x34, 0xed, 0xe8, 0xaa, 0x19, 0xbb, 0x2d, 0x34, 0x51,
    0xe3, 0xba, 0xb2, 0x47, 0xf4, 0xc2, 0x1f, 0x13, 0x08, 0x38, 0xd1, 0xda,
    0xc6, 0xf2, 0xbe, 0x3c, 0x08, 0xf6, 0x0a, 0xed, 0x34, 0x07, 0x11, 0xcb,
    0xd1, 0x08, 0xf0, 0x3d, 0x1e, 0xeb, 0xb7, 0xfa, 0x03, 0x33, 0xe9, 0x11,
    0xe1, 0xf1, 0x09, 0x25, 0x43, 0xd4, 0xe4, 0x27, 0xf6, 0x1a, 0x17, 0x2d,
    0xdb, 0xde, 0xec, 0x2e, 0xa7, 0x0d, 0x29, 0xac, 0xb5, 0xc8, 0xec, 0xfc,
    0x1e, 0x07, 0xda, 0x9e, 0xb3, 0xe5, 0x7f, 0xc9, 0x07, 0xf0, 0x02, 0xbc,
    0x28, 0x02, 0xc7, 0xb4, 0xc1, 0xa0, 0x0e, 0x08, 0x0f, 0xd9, 0x05, 0xf5,
    0xba, 0x0a, 0xd0, 0x11, 0x3d, 0x05, 0xe2, 0x1b, 0x0c, 0xfe, 0xed, 0x20,
    0x02, 0xdb, 0x10, 0xfb, 0x25, 0x14, 0xb4, 0xd6, 0x1f, 0xd9, 0x04, 0x05,
    0x10, 0xf0, 0x2f, 0xd3, 0xff, 0x17, 0xd6, 0xf4, 0xee, 0x06, 0xdb, 0xeb,
    0x12, 0x2c, 0x16, 0x92, 0xde, 0xb2, 0x12, 0x25, 0x07, 0xb7, 0x3f, 0xf2,
    0xae, 0xf1, 0xbf, 0x29, 0xe7, 0xd0, 0xf9, 0x02, 0x3c, 0xe6, 0xdc, 0x09,
    0xc9, 0xe3, 0xb9, 0x04, 0xd4, 0xc7, 0xd7, 0xf6, 0xb8, 0xd5, 0x10, 0xbe,
    0xe9, 0x05, 0xb0, 0x20, 0x09, 0x3a, 0x25, 0x96, 0xef, 0xf5, 0xd0, 0xd1,
    0x24, 0x27, 0x2e, 0x9f, 0xc9, 0xdc, 0x26, 0xee, 0xe5, 0xe0, 0x2c, 0xe0,
    0xfd, 0x01, 0xfe, 0xfa, 0xb2, 0xbc, 0xfa, 0xed, 0xdf, 0xb3, 0x25, 0xc8,
    0xdf, 0xe5, 0xf3, 0xe9, 0x7f, 0x45, 0xb1, 0xc7, 0xe2, 0x00, 0x0c, 0x5a,
    0x68, 0xef, 0xeb, 0x3e, 0xfd, 0xf8, 0x18, 0xb8, 0xf5, 0x00, 0xda, 0xaa,
    0xef, 0x1c, 0xeb, 0xd6, 0xb1, 0xfa, 0x1a, 0x94, 0x35, 0x0c, 0xe3, 0x20,
    0x36, 0x21, 0x15, 0xaf, 0xde, 0xf0, 0xa1, 0x0a, 0xd3, 0x02, 0x2b, 0xef,
    0xcf, 0x41, 0xb1, 0x20, 0xdd, 0xef, 0xb5, 0x46, 0xad, 0x51, 0x1f, 0x1d,
    0x0f, 0x16, 0x9b, 0x42, 0xb3, 0xf6, 0x12, 0x17, 0x17, 0x1b, 0xea, 0xa4,
    0xd4, 0x2f, 0x84, 0xf4, 0x36, 0x31, 0x32, 0xd7, 0xc5, 0xd5, 0xe2, 0x0a,
    0x4d, 0xfc, 0xc2, 0xb9, 0x72, 0x5e, 0x2d, 0xcd, 0x02, 0xc5, 0xbf, 0x01,
    0x68, 0x02, 0x1a, 0xaa, 0x63, 0x3b, 0xba, 0xff, 0xaf, 0xce, 0xca, 0x66,
    0x67, 0xd9, 0xf9, 0xc9, 0xe6, 0xce, 0x1b, 0x00, 0x3a, 0xd1, 0x2c, 0xfb,
    0xd3, 0xbf, 0x27, 0x2c, 0xd3, 0xa9, 0x06, 0xd8, 0x25, 0xe6, 0x17, 0xbb,
    0x8a, 0xe0, 0x2a, 0x24, 0xda, 0x8e, 0x23, 0xfc, 0x4a, 0x01, 0x02, 0xc3,
    0x81, 0xeb, 0xeb, 0x30, 0xae, 0x81, 0xec, 0xeb, 0x50, 0xfa, 0xc4, 0xf8,
    0xab, 0xf4, 0x06, 0xbc, 0x2f, 0xfe, 0xf0, 0x0e, 0x15, 0x05, 0x24, 0x31,
    0x06, 0xb4, 0x2e, 0x34, 0xe6, 0x29, 0x20, 0xc5, 0xc8, 0xf0, 0x05, 0xaf,
    0x1e, 0x4a, 0xfc, 0xe6, 0xf6, 0xc3, 0xe7, 0x21, 0x20, 0x06, 0xab, 0xed,
    0xac, 0xea, 0xff, 0xfb, 0x67, 0x07, 0x0f, 0x17, 0xff, 0x2f, 0x24, 0x0a,
    0xf0, 0xbe, 0xfd, 0x19, 0xb2, 0x2e, 0xe0, 0x9f, 0xa7, 0xf4, 0xe5, 0xb6,
    0x25, 0x42, 0xc8, 0x02, 0x1c, 0xfd, 0x14, 0xfc, 0xdc, 0x03, 0x2c, 0x08,
    0xf2, 0xaf, 0xa7, 0x07, 0x23, 0xfe, 0xf8, 0xeb, 0xdd, 0x1f, 0x24, 0xf3,
    0x12, 0xf6, 0xd1, 0xf8, 0x9d, 0xe8, 0xd9, 0x99, 0xab, 0x12, 0xe2, 0xee,
    0x27, 0x4b, 0xd0, 0xe9, 0x1b, 0x0a, 0x19, 0x07, 0xf2, 0xf1, 0x0b, 0xf4,
    0xdc, 0x09, 0xcc, 0xee, 0x0f, 0x0a, 0xa2, 0x18, 0xdf, 0x01, 0xa8, 0x08,
    0x08, 0xcf, 0xd4, 0x2b, 0xdf, 0x2e, 0xb9, 0x30, 0xc1, 0xd1, 0x15, 0x62,
    0x21, 0xd3, 0xfa, 0x49, 0x21, 0x13, 0x22, 0xfe, 0x16, 0xd9, 0xed, 0xfb,
    0xf0, 0xf6, 0xdd, 0xcf, 0xfb, 0x0a, 0xa7, 0x00, 0xde, 0x2e, 0x96, 0xb6,
    0x25, 0xbf, 0xdf, 0xa3, 0xa5, 0xe6, 0xea, 0x45, 0xd3, 0xfd, 0x16, 0x17,
    0xfe, 0xf2, 0xf7, 0x12, 0xf5, 0xe3, 0x23, 0xe9, 0x13, 0xf3, 0x56, 0x26,
    0xa4, 0xf2, 0xf9, 0x65, 0x23, 0x49, 0x06, 0x9a, 0x34, 0xea, 0x81, 0x92,
    0xcb, 0xab, 0x78, 0xa9, 0x69, 0xee, 0xd7, 0x1c, 0x2e, 0xbf, 0x18, 0x0f,
    0x31, 0xce, 0xfd, 0x10, 0xd6, 0xf1, 0xaa, 0x05, 0x93, 0xeb, 0x24, 0x10,
    0x09, 0x37, 0xc1, 0x05, 0xdd, 0x19, 0xc7, 0xcc, 0x81, 0xca, 0xff, 0x15,
    0x41, 0x31, 0xe1, 0xcb, 0xd5, 0x40, 0x1a, 0x86, 0x8b, 0xfe, 0x02, 0x14,
    0x24, 0x4b, 0xd5, 0x88, 0x3a, 0xe4, 0xb9, 0x2d, 0xfc, 0x02, 0xf0, 0x12,
    0xe3, 0xc0, 0xdc, 0x1f, 0x44, 0x09, 0xff, 0x37, 0x43, 0xd9, 0xcc, 0xe2,
    0xd5, 0xb2, 0x34, 0x02, 0x25, 0x17, 0x1e, 0x00, 0x3c, 0xda, 0xd6, 0xde,
    0xfb, 0xc6, 0x4e, 0xdb, 0xe1, 0x1a, 0x34, 0xd2, 0x1e, 0x00, 0x11, 0xbd,
    0x12, 0x09, 0x0d, 0xfd, 0xd5, 0xce, 0xfd, 0xe3, 0xff, 0xc5, 0x06, 0xd6,
    0xf9, 0xf4, 0xe1, 0x1a, 0xe7, 0xa5, 0xfd, 0xf5, 0x03, 0xe1, 0x1d, 0xf1,
    0xcd, 0xee, 0xd0, 0x1b, 0xf7, 0xbf, 0xe8, 0x28, 0xe0, 0xcc, 0xe7, 0x03,
    0x09, 0x09, 0xb0, 0x08, 0x0d, 0xe5, 0xe1, 0x19, 0xee, 0xba, 0x30, 0x3e,
    0xe5, 0xd2, 0xf1, 0x23, 0x09, 0x0d, 0x15, 0xf1, 0xeb, 0xd2, 0x1e, 0x2b,
    0x06, 0xf8, 0xfb, 0x04, 0x26, 0x11, 0xcf, 0xd4, 0xe2, 0x23, 0x8d, 0xe9,
    0x35, 0xb1, 0x0c, 0xe9, 0xc3, 0xa2, 0xfa, 0x25, 0xd9, 0x0d, 0x37, 0xf1,
    0xce, 0xfe, 0xeb, 0x28, 0xd0, 0x27, 0xf0, 0xfb, 0x42, 0xe9, 0x03, 0xe7,
    0xf5, 0x07, 0x22, 0x02, 0xe2, 0x35, 0x0b, 0xcb, 0x4f, 0x16, 0xad, 0xea,
    0xc2, 0x81, 0x05, 0xdd, 0x33, 0x40, 0x22, 0xb8, 0xfb, 0xd0, 0xb1, 0x90,
    0x51, 0x15, 0x38, 0xa2, 0x21, 0xdd, 0xc6, 0x33, 0xcf, 0xd3, 0xee, 0x33,
    0xf4, 0x08, 0xcf, 0x2b, 0xed, 0x22, 0x40, 0xf8, 0xd0, 0xf9, 0x09, 0xa9,
    0xff, 0x29, 0xc5, 0x07, 0xc9, 0xda, 0xf2, 0xac, 0x18, 0x00, 0xf0, 0xf7,
    0x02, 0x54, 0x02, 0xaf, 0x32, 0xd6, 0xa5, 0x17, 0xea, 0xe2, 0xe0, 0xfb,
    0xf4, 0xd7, 0x19, 0xf9, 0x0d, 0x46, 0x05, 0xe9, 0xca, 0x48, 0x03, 0xa2,
    0x10, 0x02, 0xb3, 0x1d, 0x16, 0xa9, 0xe1, 0x1e, 0x3b, 0xcb, 0x0f, 0x2e,
    0xf2, 0x01, 0x3c, 0xb1, 0xfa, 0x04, 0xcf, 0x24, 0xd9, 0x04, 0xe5, 0xcb,
    0xe6, 0xbc, 0x00, 0x00, 0x04, 0x2a, 0xe2, 0x9e, 0xe7, 0x2a, 0xec, 0xc4,
    0x3f, 0xf4, 0xfa, 0xeb, 0x06, 0xd0, 0xe9, 0x18, 0x46, 0xf7, 0xc9, 0x68,
    0x81, 0xa8, 0x01, 0xb9, 0xfd, 0x3a, 0x9e, 0xd7, 0xbe, 0x58, 0xbc, 0x9b,
    0x3d, 0xdf, 0xd8, 0x15, 0x20, 0x29, 0xec, 0xf2, 0x04, 0x00, 0x19, 0x11,
    0x3a, 0xba, 0x00, 0x24, 0x1c, 0x17, 0x15, 0xf5, 0x1c, 0xf9, 0x1a, 0xe2,
    0x14, 0xeb, 0x25, 0xdb, 0x1f, 0xe8, 0x1a, 0x08, 0x15, 0xf1, 0x1e, 0x08,
    0x04, 0xd9, 0xd9, 0x02, 0x08, 0xc3, 0xde, 0x05, 0xd9, 0xd7, 0xec, 0xea,
    0xc5, 0xe1, 0xf5, 0x26, 0xf5, 0xb7, 0x1b, 0x0f, 0x28, 0xca, 0x0b, 0xf2,
    0xba, 0xef, 0x0d, 0x19, 0xe1, 0xf7, 0xee, 0x0b, 0x00, 0xbf, 0x09, 0xe4,
    0xdb, 0xeb, 0x01, 0x17, 0x0c, 0x45, 0xe2, 0xa7, 0x23, 0xc2, 0xb5, 0xed,
    0x56, 0x0b, 0x21, 0xd5, 0x0c, 0x23, 0x1b, 0xb6, 0xf3, 0xd8, 0xf0, 0xdf,
    0x0d, 0x1f, 0x24, 0xdd, 0xaa, 0xe6, 0xf3, 0xa7, 0xb4, 0xb4, 0x13, 0x81,
    0xd9, 0x4d, 0xd5, 0xe2, 0x7f, 0x18, 0xed, 0x02, 0x5f, 0xce, 0x8c, 0xf0,
    0x13, 0xb3, 0x25, 0x05, 0x2c, 0xe8, 0x9c, 0x36, 0xc2, 0xba, 0x0e, 0xfc,
    0xd1, 0xb6, 0xee, 0x42, 0x08, 0x10, 0x10, 0x37, 0x36, 0xbd, 0x27, 0xf0,
    0x11, 0xcc, 0x00, 0x20, 0x13, 0x2a, 0x9b, 0x2a, 0xdc, 0xf0, 0x8b, 0xe1,
    0xc9, 0xd1, 0xd7, 0xff, 0xf7, 0xf3, 0xfa, 0xfa, 0xe6, 0xc2, 0xf8, 0xbb,
    0x29, 0x02, 0x1f, 0xfa, 0xff, 0x14, 0x68, 0x0f, 0x0c, 0xcc, 0x34, 0xde,
    0x1c, 0x04, 0x36, 0x06, 0x13, 0x2d, 0xec, 0xbe, 0x5e, 0xc3, 0xe2, 0xca,
    0x06, 0xcf, 0x21, 0xfd, 0xff, 0x22, 0x21, 0xb1, 0x27, 0xd9, 0xd6, 0xc7,
    0x2f, 0xe3, 0x34, 0x10, 0xd2, 0x00, 0x71, 0xc5, 0x05, 0xb9, 0x31, 0xac,
    0x0f, 0x02, 0x3c, 0x16, 0x4e, 0xc6, 0xff, 0xff, 0x04, 0x00, 0x00, 0x00,
    0x60, 0x00, 0x00, 0x00, 0x96, 0x06, 0x00, 0x00, 0x36, 0x01, 0x00, 0x00,
    0xc9, 0x00, 0x00, 0x00, 0x96, 0xf1, 0xff, 0xff, 0x1d, 0xfd, 0xff, 0xff,
    0x06, 0x06, 0x00, 0x00, 0x0a, 0x01, 0x00, 0x00, 0xf5, 0x02, 0x00, 0x00,
    0x4b, 0x0d, 0x00, 0x00, 0x62, 0xf7, 0xff, 0xff, 0x8c, 0xff, 0xff, 0xff,
    0x61, 0x02, 0x00, 0x00, 0x30, 0xfb, 0xff, 0xff, 0x8c, 0x05, 0x00, 0x00,
    0x9f, 0x04, 0x00, 0x00, 0x26, 0x0a, 0x00, 0x00, 0x95, 0x04, 0x00, 0x00,
    0x0d, 0x05, 0x00, 0x00, 0x4f, 0xf4, 0xff, 0xff, 0x45, 0x04, 0x00, 0x00,
    0x98, 0x08, 0x00, 0x00, 0xb3, 0x0f, 0x00, 0x00, 0x32, 0xf5, 0xff, 0xff,
    0xc5, 0xb6, 0xff, 0xff, 0xba, 0xc6, 0xff, 0xff, 0x04, 0x00, 0x00, 0x00,
    0x40, 0x14, 0x00, 0x00, 0xdc, 0xe3, 0x9c, 0x2f, 0xe9, 0x41, 0xfa, 0x1d,
    0xce, 0xeb, 0x07, 0x12, 0x3f, 0x09, 0x0f, 0x0a, 0xdc, 0xed, 0xed, 0xf1,
    0xc4, 0x17, 0xc7, 0xd5, 0x1a, 0xfc, 0x13, 0x27, 0xfa, 0x30, 0xe4, 0xc5,
    0xf9, 0xc2, 0xd8, 0xf6, 0xb3, 0xfb, 0xdc, 0x9f, 0xf6, 0x15, 0x2b, 0xf4,
    0xc8, 0x0e, 0xfd, 0x2e, 0x29, 0xfe, 0x09, 0xc9, 0xfb, 0xdb, 0x22, 0xff,
    0x3f, 0xb6, 0x09, 0x11, 0x00, 0xee, 0x18, 0x35, 0xf3, 0x07, 0xc4, 0xd1,
    0xf8, 0xef, 0x30, 0xdc, 0x4a, 0x90, 0xd7, 0xce, 0x05, 0xf9, 0xdf, 0x89,
    0xbf, 0xce, 0xfb, 0xbf, 0xeb, 0xa0, 0x11, 0xb0, 0xcf, 0x14, 0xcc, 0xdb,
    0xdc, 0xa9, 0xaa, 0x16, 0x05, 0x21, 0x1f, 0xda, 0x2c, 0x25, 0x0b, 0xe3,
    0x31, 0xe5, 0x10, 0x08, 0xde, 0xfc, 0x05, 0xea, 0xec, 0x1f, 0xef, 0xfb,
    0xc3, 0xd3, 0x28, 0xe2, 0x01, 0x12, 0x08, 0xed, 0xe3, 0x0b, 0xe3, 0xe4,
    0xdb, 0xcd, 0x01, 0xf1, 0xf8, 0xf7, 0xe6, 0x1e, 0xf3, 0x0d, 0x04, 0xec,
    0x24, 0x02, 0xfe, 0xf2, 0xbd, 0xc9, 0x0b, 0xac, 0x96, 0xba, 0xa2, 0xbf,
    0x2d, 0xd7, 0xd6, 0x0d, 0xc1, 0xd1, 0xc8, 0x24, 0xe3, 0xb9, 0xd1, 0xd7,
    0x03, 0xbe, 0x15, 0xe6, 0x14, 0x03, 0xd9, 0x35, 0xbd, 0x0a, 0xb6, 0xb1,
    0x9c, 0xdf, 0xdc, 0xf1, 0xc0, 0xf9, 0x97, 0xfd, 0xd6, 0xd5, 0x01, 0xed,
    0xc8, 0x0f, 0xc4, 0xee, 0xf3, 0xfa, 0xd8, 0x29, 0x0b, 0x06, 0xbd, 0xbc,
    0x09, 0x81, 0x00, 0x04, 0xc0, 0xdb, 0xc8, 0x1b, 0xd9, 0x48, 0x00, 0xfa,
    0x09, 0x00, 0x38, 0x47, 0xc7, 0x34, 0x95, 0x21, 0xf9, 0x0e, 0x10, 0xf6,
    0x39, 0xf4, 0x37, 0x0b, 0x1e, 0xea, 0xde, 0xf0, 0x84, 0x3a, 0xb8, 0xbe,
    0xd8, 0x15, 0x10, 0xe3, 0x14, 0xc4, 0xba, 0x4f, 0xd1, 0x43, 0xdc, 0xe8,
    0x81, 0xb9, 0x37, 0xd4, 0x25, 0x0f, 0xf5, 0xe2, 0xae, 0x18, 0xda, 0xbe,
    0xe4, 0x3e, 0x8f, 0x0f, 0xf2, 0x06, 0xe2, 0xda, 0x07, 0x1e, 0xd2, 0xda,
    0x62, 0xd7, 0xd5, 0xb9, 0xc5, 0xf8, 0xc2, 0xe2, 0xee, 0x2b, 0xce, 0xcc,
    0xa3, 0xd3, 0x5a, 0x1b, 0x07, 0x0d, 0x8f, 0xdc, 0xe0, 0xdb, 0xf9, 0xe3,
    0x22, 0xd7, 0xcb, 0x43, 0xe2, 0x93, 0x08, 0xc5, 0x89, 0xfe, 0xc7, 0xb4,
    0xa9, 0x18, 0xf4, 0x05, 0x32, 0x0f, 0x70, 0xda, 0x1b, 0xf5, 0x1a, 0xcd,
    0xe3, 0xb8, 0xeb, 0x2b, 0xf0, 0xa2, 0x28, 0x1e, 0xdd, 0xd6, 0x02, 0xc3,
    0x18, 0x06, 0xe7, 0x35, 0xd8, 0x1e, 0xe4, 0xcd, 0xfb, 0xda, 0xc6, 0x12,
    0xfe, 0xea, 0xf6, 0x09, 0xe4, 0xc2, 0xf1, 0x11, 0xe4, 0xc2, 0x97, 0xd2,
    0xb1, 0xe3, 0xf9, 0x99, 0x47, 0xf5, 0xe5, 0xf5, 0x26, 0x17, 0x0b, 0xb4,
    0xe2, 0xd9, 0x1b, 0xff, 0xf8, 0xcd, 0xe4, 0x05, 0xd5, 0x0d, 0xd6, 0xd9,
    0xc2, 0x07, 0x01, 0xd3, 0x2c, 0x06, 0x49, 0xf7, 0xf3, 0x3b, 0xfd, 0xd0,
    0xfa, 0x8c, 0x1e, 0xe1, 0xd3, 0xd3, 0xfd, 0x00, 0xf3, 0x38, 0xfa, 0xf0,
    0x18, 0x22, 0x03, 0x00, 0xb6, 0x08, 0xd0, 0x16, 0xb5, 0x58, 0xf8, 0xda,
    0xf4, 0xcd, 0x0a, 0x0f, 0xc8, 0xa5, 0xe5, 0xe5, 0xc6, 0x52, 0x99, 0xff,
    0xe8, 0x1d, 0xf7, 0xd8, 0x24, 0x1e, 0x14, 0xef, 0x23, 0xfa, 0x1f, 0xfd,
    0xda, 0xe6, 0xd5, 0x06, 0x0c, 0x3d, 0x2a, 0x47, 0x14, 0xde, 0x08, 0xf7,
    0x53, 0x01, 0x07, 0x2c, 0x2b, 0xe4, 0x04, 0xe0, 0xd6, 0x08, 0x07, 0x09,
    0x07, 0xe6, 0xec, 0xfd, 0xe3, 0xcf, 0x09, 0x64, 0xbf, 0xe9, 0xe6, 0xe2,
    0xfd, 0x2f, 0xee, 0xea, 0xd6, 0x1e, 0x0c, 0x0a, 0x81, 0x34, 0xf8, 0xeb,
    0x40, 0xf5, 0xb7, 0x26, 0xb9, 0xf3, 0x06, 0x14, 0xed, 0xfe, 0xb8, 0x12,
    0xfd, 0x04, 0x03, 0x2a, 0xe9, 0x19, 0xdb, 0x38, 0xc5, 0x08, 0x11, 0xdc,
    0x0f, 0xfe, 0x38, 0xf8, 0xbe, 0x06, 0xa5, 0x9b, 0xdb, 0x34, 0xcc, 0xf1,
    0xf0, 0x0b, 0xde, 0xd6, 0x2a, 0x00, 0x26, 0xea, 0xe5, 0xf0, 0xd3, 0xd2,
    0xc3, 0xeb, 0x4d, 0xf1, 0x93, 0xc9, 0xbe, 0xdd, 0xbf, 0x02, 0xd7, 0xb8,
    0x00, 0x00, 0xb5, 0xc6, 0x0a, 0x00, 0xcf, 0xf8, 0xe0, 0x04, 0xd6, 0xc0,
    0xb2, 0x00, 0x24, 0x16, 0xab, 0xea, 0xb2, 0x94, 0x14, 0x1d, 0x05, 0x0f,
    0x23, 0x1c, 0x01, 0x0a, 0xdf, 0xd6, 0xbb, 0xf0, 0x0c, 0xdd, 0x05, 0xf6,
    0x2d, 0xff, 0xbb, 0x17, 0x0a, 0x19, 0x13, 0xd7, 0x22, 0xdc, 0x1e, 0x15,
    0x16, 0xdf, 0x28, 0x21, 0xc7, 0xd5, 0xdb, 0x13, 0x0a, 0xe4, 0xb5, 0xed,
    0xf0, 0x0c, 0xcd, 0xdf, 0x00, 0x02, 0xf2, 0xa6, 0xf7, 0xe8, 0x30, 0x07,
    0xf9, 0xf6, 0xbf, 0xf7, 0xf0, 0xda, 0xd6, 0xfa, 0x27, 0xd1, 0xef, 0x1c,
    0xef, 0x1e, 0xe7, 0xaa, 0x10, 0x27, 0xfa, 0xd6, 0x2b, 0xca, 0x18, 0x07,
    0x00, 0x0e, 0xf3, 0x16, 0xfe, 0xa4, 0xb9, 0x7c, 0xe2, 0x05, 0x29, 0x0b,
    0x13, 0x0b, 0xf7, 0xdf, 0x3b, 0x38, 0x57, 0x40, 0xd0, 0xdd, 0x2a, 0xe4,
    0x1d, 0xc8, 0x3e, 0x15, 0x7f, 0xb2, 0xbb, 0x15, 0x01, 0x75, 0x04, 0xf2,
    0x07, 0xcc, 0x08, 0xaf, 0xf3, 0xe9, 0xee, 0xf8, 0xea, 0x1b, 0xf3, 0x11,
    0xe9, 0xe9, 0xca, 0xf9, 0xfc, 0x29, 0x1d, 0x34, 0x03, 0x03, 0xc0, 0xec,
    0x14, 0x09, 0xf2, 0x2d, 0x00, 0x36, 0x99, 0xfa, 0xf5, 0x2d, 0x0b, 0xf6,
    0x25, 0x01, 0x55, 0x6f, 0x32, 0xb5, 0x54, 0x04, 0x21, 0xd2, 0x0e, 0x8f,
    0xb6, 0xbe, 0x17, 0xae, 0xc4, 0x37, 0x24, 0x0f, 0xc8, 0x16, 0x0b, 0xc2,
    0x39, 0xd4, 0xf8, 0x10, 0xe6, 0x1e, 0xfa, 0xbd, 0x02, 0xcb, 0x11, 0xcb,
    0x05, 0xda, 0x1c, 0x10, 0x22, 0xe3, 0xd2, 0xf8, 0xad, 0xd7, 0xc5, 0xe2,
    0xa9, 0x15, 0xe4, 0x82, 0xc7, 0xd7, 0x97, 0x21, 0xfb, 0xdf, 0x9d, 0xf6,
    0x17, 0xfe, 0x0f, 0x22, 0xbf, 0x0c, 0xcb, 0xa9, 0x06, 0x0e, 0x1e, 0xd0,
    0x14, 0x1e, 0xf9, 0x12, 0xd8, 0x05, 0x4b, 0x4b, 0xd5, 0xec, 0xbd, 0x8c,
    0x2e, 0xe2, 0x10, 0xd7, 0x93, 0x6a, 0xbb, 0xc6, 0xd7, 0x2c, 0x13, 0xd9,
    0x19, 0x09, 0x19, 0x30, 0xa6, 0xbf, 0xe4, 0xd0, 0xb2, 0xc6, 0xc2, 0xab,
    0x01, 0xc3, 0x20, 0x1d, 0xbd, 0xb0, 0xd2, 0x19, 0x92, 0xce, 0xbe, 0xc4,
    0xe9, 0x29, 0xda, 0xb2, 0x30, 0x90, 0xa0, 0x2b, 0x2a, 0x28, 0x21, 0x20,
    0xae, 0x00, 0x2d, 0xa6, 0x2f, 0x41, 0x23, 0xf4, 0x34, 0xc6, 0x3d, 0xb2,
    0x18, 0x1f, 0x14, 0xcb, 0xe3, 0xde, 0xd0, 0xd3, 0xe9, 0xe5, 0xfb, 0xe7,
    0x15, 0xf9, 0xc9, 0xdf, 0x13, 0xc8, 0x15, 0x01, 0xb5, 0x0b, 0xcd, 0xb7,
    0x00, 0xd6, 0x04, 0xf6, 0xe1, 0x17, 0x34, 0xe7, 0xce, 0xec, 0xf3, 0xda,
    0x22, 0xe9, 0xbc, 0xf8, 0xf7, 0xb5, 0x05, 0x13, 0xdc, 0xeb, 0xc0, 0xe0,
    0xdd, 0x00, 0xc9, 0xc2, 0xdf, 0x10, 0xfd, 0x1c, 0xcc, 0x02, 0xd5, 0xf0,
    0x17, 0x08, 0xe6, 0x38, 0xd1, 0xf0, 0xc3, 0xf4, 0x09, 0x05, 0xeb, 0x18,
    0xe1, 0x27, 0xeb, 0x0b, 0x05, 0x20, 0x3e, 0xfc, 0x00, 0x1f, 0x1d, 0xf1,
    0xea, 0xff, 0x23, 0x2f, 0xec, 0x0e, 0x1d, 0x12, 0x1a, 0xfc, 0x04, 0x08,
    0xeb, 0x32, 0xa7, 0xcc, 0x18, 0x09, 0xfa, 0x1b, 0xdb, 0x1b, 0xe1, 0x04,
    0xbc, 0xd2, 0x30, 0x0d, 0xfd, 0xf5, 0xed, 0x00, 0xe6, 0x18, 0xd7, 0x0b,
    0xe8, 0x18, 0xcf, 0xff, 0x27, 0xce, 0xa1, 0xf6, 0x34, 0x1d, 0xda, 0x08,
    0xe7, 0x04, 0x34, 0xe3, 0x12, 0xf4, 0x01, 0xc4, 0x05, 0x03, 0x12, 0x06,
    0x00, 0xf6, 0x2a, 0x25, 0xf1, 0xf0, 0xc1, 0x06, 0xd1, 0x03, 0xe1, 0xfd,
    0x13, 0xe4, 0xe8, 0x19, 0xe1, 0xd3, 0x08, 0xbe, 0x11, 0x13, 0x07, 0x04,
    0x1e, 0x0b, 0x55, 0x25, 0xe8, 0xd8, 0xc6, 0xe9, 0xdf, 0x04, 0xe4, 0x10,
    0x3d, 0xd6, 0xee, 0xde, 0xfe, 0xf4, 0x05, 0xf8, 0xf4, 0x03, 0xfb, 0xf5,
    0xfe, 0xe2, 0x07, 0xee, 0x06, 0xf7, 0x28, 0xa8, 0xf3, 0xc0, 0x29, 0x1e,
    0x0c, 0xf8, 0xbf, 0x81, 0x06, 0x09, 0x2a, 0x2c, 0x0a, 0xac, 0x1b, 0x16,
    0x12, 0xc9, 0x16, 0xdc, 0xfd, 0xed, 0xf4, 0xf8, 0xd7, 0x0b, 0xe9, 0xf3,
    0x20, 0xd6, 0xe6, 0x05, 0x2a, 0x96, 0x16, 0xb1, 0xea, 0x16, 0xbe, 0xc1,
    0xd8, 0x04, 0xdc, 0xdd, 0x13, 0x07, 0xcc, 0xff, 0xc9, 0x2a, 0x0d, 0x07,
    0x1a, 0xc0, 0x0d, 0x05, 0xfb, 0xda, 0x0e, 0xed, 0xf8, 0x23, 0xcb, 0xfd,
    0x0d, 0x01, 0x18, 0xce, 0x07, 0x13, 0x2a, 0xce, 0xef, 0x03, 0x49, 0xcb,
    0x1c, 0xb1, 0x16, 0x0f, 0xf4, 0xe4, 0x2d, 0x10, 0xb7, 0x09, 0xda, 0xe2,
    0x02, 0x0f, 0xff, 0xb0, 0xf7, 0x2e, 0x1e, 0x13, 0xa2, 0xe5, 0xd9, 0xcd,
    0xc6, 0xeb, 0xe5, 0x1a, 0x9c, 0xf6, 0xdc, 0x04, 0xd8, 0xea, 0x12, 0xf9,
    0xee, 0x0e, 0x96, 0x26, 0xf0, 0xd5, 0xee, 0xfb, 0xea, 0xc7, 0x37, 0xfd,
    0xc7, 0x2b, 0xeb, 0xc5, 0xc2, 0x1b, 0x00, 0x2d, 0x11, 0xdb, 0x33, 0x14,
    0x45, 0xf4, 0xd1, 0x3b, 0xc3, 0xc3, 0x28, 0xdb, 0x2b, 0xc4, 0x06, 0x04,
    0xc5, 0x2c, 0xee, 0xd6, 0xe1, 0x17, 0x11, 0x17, 0x1f, 0x0e, 0x1a, 0xdd,
    0xf1, 0x09, 0xc0, 0xf9, 0x01, 0xd3, 0x9d, 0xb9, 0x1e, 0x10, 0xf6, 0x14,
    0x19, 0x14, 0xeb, 0xe3, 0xf1, 0xfd, 0x08, 0xca, 0xff, 0xcb, 0x22, 0x21,
    0x32, 0x03, 0x6a, 0x26, 0x04, 0xd6, 0xe4, 0xf9, 0x4e, 0xff, 0xfb, 0xfe,
    0xec, 0x0a, 0xc9, 0xb7, 0x04, 0x37, 0xfa, 0xce, 0xe8, 0xe9, 0xf7, 0x06,
    0x15, 0xd9, 0xee, 0xf1, 0x0f, 0x5e, 0x27, 0x07, 0x03, 0xf9, 0xf1, 0x12,
    0xf9, 0xfe, 0xfb, 0x1b, 0x10, 0xeb, 0xe4, 0xe2, 0x22, 0x18, 0xb5, 0x0d,
    0x81, 0xe2, 0x00, 0x1a, 0xe8, 0xbb, 0xce, 0xfc, 0xf6, 0xe7, 0x0f, 0xee,
    0x28, 0x25, 0x26, 0x19, 0x11, 0x27, 0xeb, 0xc2, 0xec, 0x19, 0xf2, 0x0e,
    0x1c, 0xde, 0x13, 0xd5, 0xec, 0xe9, 0x0a, 0xf9, 0xcc, 0x05, 0x14, 0x07,
    0x1f, 0x08, 0x14, 0x03, 0x05, 0xea, 0x22, 0x16, 0xdc, 0x07, 0xd8, 0xcd,
    0xd4, 0xf2, 0x08, 0xdd, 0x12, 0xbd, 0xbf, 0x07, 0x0a, 0x02, 0x04, 0xe6,
    0xdc, 0xfc, 0x22, 0xca, 0xfa, 0x13, 0xff, 0xf7, 0xcf, 0xfe, 0x2a, 0xd5,
    0xed, 0xe4, 0x00, 0x47, 0x3f, 0xde, 0xc0, 0x09, 0xf0, 0xef, 0xc5, 0xdf,
    0xee, 0x1a, 0xe0, 0xc9, 0xde, 0x05, 0xcb, 0x20, 0xf4, 0xcb, 0x35, 0xc2,
    0x0f, 0xdf, 0x21, 0x69, 0xff, 0xfa, 0x21, 0xd6, 0xcb, 0xf1, 0x1a, 0xea,
    0x17, 0xdb, 0xdb, 0xec, 0xf9, 0xd3, 0x0c, 0x12, 0x0c, 0x0b, 0xe9, 0xd6,
    0xf4, 0x04, 0x1c, 0x05, 0xfc, 0xcc, 0x07, 0xda, 0x0b, 0xe7, 0x06, 0xdd,
    0x04, 0xed, 0xf8, 0xdd, 0x0b, 0x03, 0x04, 0xf6, 0xdf, 0xfa, 0xe8, 0xd8,
    0xeb, 0xf2, 0xfa, 0xc3, 0xcb, 0x0e, 0x13, 0x19, 0xd3, 0xfb, 0xff, 0xf5,
    0xde, 0x14, 0x0e, 0x10, 0x03, 0x1b, 0xee, 0xf0, 0xf4, 0x25, 0xdc, 0xe6,
    0xeb, 0xfd, 0x81, 0xc8, 0xe6, 0xf1, 0xe9, 0xfe, 0xc4, 0xd7, 0x11, 0xc2,
    0xf1, 0xd4, 0x02, 0xe0, 0x01, 0x29, 0x1c, 0xf2, 0xf6, 0xea, 0x11, 0x0f,
    0x26, 0xe9, 0xc7, 0xeb, 0xdf, 0x16, 0x20, 0xee, 0xfb, 0xbe, 0xfe, 0xd4,
    0xe7, 0xea, 0xf2, 0xe6, 0x06, 0xf9, 0x08, 0x07, 0x08, 0xc2, 0x20, 0xf1,
    0x28, 0xf6, 0xfd, 0x1b, 0xe6, 0xa9, 0xf0, 0x03, 0xde, 0x05, 0xfe, 0xe8,
    0xf6, 0xf2, 0x29, 0xd5, 0xed, 0x2a, 0xc6, 0xd7, 0x1b, 0x0d, 0xee, 0x0f,
    0x28, 0xff, 0xa9, 0x8d, 0xef, 0xbc, 0xdb, 0x09, 0xdf, 0xf0, 0xae, 0xfe,
    0xf7, 0x18, 0x08, 0xf8, 0xb8, 0xf9, 0xc1, 0xff, 0xd8, 0x0b, 0x10, 0xd8,
    0x12, 0xe7, 0x01, 0xe5, 0x0d, 0x0c, 0xf8, 0x19, 0xf2, 0x0d, 0xb0, 0xe3,
    0x07, 0x11, 0xe0, 0xfb, 0x82, 0xfd, 0xbb, 0xfa, 0x02, 0x20, 0xf9, 0x05,
    0x0a, 0x04, 0xd9, 0x1a, 0x00, 0xd3, 0xd2, 0xde, 0xdd, 0xcd, 0xc3, 0xed,
    0x17, 0xf7, 0xbd, 0xd4, 0xd3, 0xfe, 0xe7, 0xda, 0xf3, 0xd4, 0x29, 0x0d,
    0x15, 0xda, 0x4b, 0x7f, 0x06, 0xf6, 0x27, 0xce, 0x28, 0xe9, 0x0e, 0x03,
    0x09, 0xe2, 0x05, 0x26, 0x00, 0x15, 0x06, 0x30, 0xdf, 0xde, 0x11, 0xe4,
    0x1a, 0xff, 0x06, 0xf5, 0xf0, 0xf8, 0xfc, 0xf4, 0x13, 0x04, 0xf6, 0x27,
    0x0f, 0x0b, 0x05, 0x32, 0x06, 0x10, 0x1b, 0xf4, 0x13, 0xe9, 0x15, 0x1e,
    0xf1, 0x1a, 0x2a, 0x14, 0xd6, 0xee, 0x1c, 0x08, 0xe6, 0xd5, 0x15, 0x26,
    0xca, 0x17, 0x23, 0xbd, 0x1f, 0x0c, 0x0f, 0x04, 0x2f, 0x0e, 0xe7, 0x14,
    0x13, 0xc3, 0xeb, 0xe4, 0xe5, 0xf7, 0x11, 0xea, 0x0e, 0xe1, 0xe2, 0x05,
    0x12, 0xcd, 0x15, 0xe0, 0xf8, 0xcc, 0xe8, 0x08, 0xef, 0x13, 0xe2, 0xfb,
    0xe5, 0xe0, 0xd6, 0xc3, 0xd9, 0x01, 0xf7, 0xe9, 0xdd, 0xeb, 0x3f, 0x09,
    0xfa, 0xd7, 0xe5, 0xd9, 0x4a, 0xd9, 0x26, 0x16, 0xe9, 0xd9, 0xcf, 0xef,
    0xe4, 0xe1, 0x00, 0xd8, 0x1f, 0xfb, 0x07, 0xe4, 0x03, 0x24, 0x06, 0x0a,
    0x06, 0xde, 0x05, 0xf7, 0x07, 0x16, 0x10, 0x35, 0xfb, 0x04, 0x1f, 0x22,
    0x20, 0xfe, 0x0f, 0x01, 0x15, 0xf9, 0x02, 0x0b, 0x2d, 0x0d, 0x09, 0xe2,
    0x04, 0xf1, 0x25, 0x05, 0x1d, 0x13, 0xe9, 0x37, 0xef, 0xca, 0x36, 0xe5,
    0x3b, 0x24, 0x01, 0x03, 0xf2, 0xe2, 0x91, 0xf5, 0xf2, 0xff, 0xde, 0xfd,
    0xd8, 0x3d, 0xca, 0x0a, 0xff, 0x12, 0xb3, 0x81, 0xf9, 0xf2, 0x0a, 0x16,
    0x47, 0x1a, 0xb2, 0xbe, 0x17, 0x02, 0x04, 0x05, 0x45, 0xf7, 0xe8, 0xfa,
    0xec, 0xec, 0xfc, 0xd6, 0x17, 0xfa, 0xda, 0xd7, 0x0f, 0x16, 0xfc, 0x00,
    0xc4, 0xf5, 0xf8, 0x1e, 0xfd, 0xf5, 0xea, 0x22, 0xd7, 0xe7, 0xcc, 0xb8,
    0xde, 0xb5, 0x04, 0x06, 0xf7, 0x2b, 0xad, 0xdd, 0xdf, 0xdf, 0xed, 0xd4,
    0x08, 0xe5, 0xfc, 0xe9, 0x05, 0xc7, 0xc0, 0x08, 0x1f, 0xdb, 0xde, 0xfc,
    0x9c, 0xfe, 0xe7, 0xd0, 0xda, 0xf4, 0xff, 0xf9, 0x17, 0xbd, 0x14, 0xf2,
    0x03, 0xf8, 0x1a, 0x32, 0xde, 0xfb, 0x0a, 0x13, 0xeb, 0x15, 0xd5, 0xe2,
    0x11, 0x12, 0x0e, 0x13, 0xfe, 0xf5, 0xe7, 0x9f, 0x05, 0x01, 0xe4, 0xe9,
    0xba, 0x2e, 0xd1, 0xfd, 0xec, 0xca, 0xa6, 0xec, 0x14, 0x0a, 0xbb, 0xf9,
    0x05, 0x05, 0x0b, 0x03, 0xb5, 0x00, 0xc7, 0xc2, 0x28, 0x16, 0xf0, 0xdb,
    0xee, 0x2b, 0x13, 0x0e, 0x02, 0xcd, 0xcb, 0xd2, 0xf8, 0x02, 0x1f, 0x20,
    0xdb, 0x10, 0xec, 0x98, 0x27, 0xdf, 0x2a, 0x19, 0xfd, 0x22, 0xd5, 0xfc,
    0xf6, 0x06, 0x00, 0xef, 0xe4, 0xbf, 0xb9, 0xe2, 0xd7, 0xc8, 0x22, 0x23,
    0x2a, 0xe7, 0xbb, 0xd2, 0x22, 0xf6, 0x1c, 0xf8, 0x2d, 0xc2, 0xff, 0x04,
    0x0f, 0xa0, 0x34, 0x17, 0xb5, 0x28, 0x5d, 0xcf, 0x06, 0xd0, 0xfd, 0xf0,
    0x29, 0xe0, 0xca, 0xfc, 0x1c, 0x27, 0xc9, 0x0f, 0x06, 0xf9, 0xe9, 0xf3,
    0xe9, 0x09, 0xe4, 0xe8, 0x9b, 0x19, 0xd5, 0x20, 0x0d, 0xb8, 0xa5, 0xe1,
    0xec, 0x15, 0xd8, 0xfc, 0xed, 0x14, 0x89, 0xb6, 0xfb, 0xb3, 0x14, 0xfe,
    0x2b, 0xf9, 0xce, 0x06, 0xd7, 0xa1, 0xfb, 0x1d, 0x13, 0xd3, 0x10, 0xd4,
    0x9a, 0x01, 0x28, 0xc3, 0xe1, 0x40, 0xfc, 0x1b, 0xf6, 0x15, 0x0c, 0xfa,
    0x04, 0xd5, 0xe6, 0xec, 0x0d, 0xe1, 0xed, 0xeb, 0xf7, 0x0e, 0xd5, 0xfe,
    0x0c, 0xad, 0x32, 0x1d, 0xdc, 0xd3, 0xdf, 0xec, 0xd8, 0x07, 0x1a, 0xca,
    0x04, 0x18, 0xf9, 0xe3, 0x18, 0xbe, 0x81, 0x02, 0xfb, 0xfe, 0x92, 0xf6,
    0xbe, 0x29, 0x33, 0xfb, 0xed, 0x0f, 0xea, 0xe8, 0x15, 0xca, 0x0a, 0xd4,
    0x4f, 0x26, 0xe2, 0x18, 0x0b, 0xec, 0x05, 0x34, 0xd8, 0x02, 0xc8, 0xe2,
    0x08, 0x13, 0xec, 0xe2, 0x19, 0x3c, 0xf1, 0x10, 0xe1, 0x02, 0x13, 0xd9,
    0x13, 0xf6, 0x15, 0x38, 0xf7, 0xfb, 0x02, 0xc6, 0xf4, 0xe9, 0xec, 0xc0,
    0x01, 0xba, 0xe6, 0xfa, 0xb9, 0xf2, 0x09, 0xee, 0xc4, 0x0f, 0xf6, 0xcb,
    0xec, 0xe5, 0xe8, 0xe3, 0xf7, 0xf8, 0xfd, 0x17, 0x12, 0x0d, 0x38, 0x29,
    0xea, 0xf3, 0x0c, 0xc1, 0x2f, 0x27, 0x1e, 0x13, 0x23, 0xe3, 0xe6, 0xd8,
    0xeb, 0x00, 0x24, 0xcf, 0xce, 0x0f, 0xff, 0xf0, 0xe0, 0xeb, 0xfb, 0x12,
    0xfa, 0x2b, 0x22, 0xe1, 0x19, 0x06, 0x17, 0x1f, 0xbf, 0x31, 0xab, 0xaf,
    0x2f, 0xdd, 0x00, 0xef, 0xd1, 0xfc, 0xb0, 0x11, 0xf2, 0xf9, 0xd9, 0xf5,
    0x14, 0xf3, 0x7f, 0x12, 0xff, 0xe2, 0xe8, 0xab, 0xd9, 0x32, 0xd5, 0xf9,
    0xc9, 0x1c, 0xb6, 0xc5, 0xdc, 0xe8, 0xfe, 0x04, 0x9e, 0x04, 0xb0, 0xd7,
    0xf8, 0xe2, 0xd8, 0x1e, 0xc7, 0xf7, 0xbe, 0x0c, 0xd6, 0x08, 0xc6, 0xe5,
    0xce, 0x0b, 0x0d, 0x35, 0x00, 0x0f, 0x05, 0xc8, 0xd6, 0xe8, 0x0f, 0xf5,
    0x1e, 0xfc, 0xe4, 0x23, 0x18, 0xe9, 0x2c, 0x13, 0xa6, 0x94, 0x0d, 0xaf,
    0x2b, 0x06, 0x16, 0x0b, 0x11, 0xf4, 0xd9, 0xf9, 0xfb, 0xe0, 0xfb, 0x10,
    0x1c, 0xeb, 0xb1, 0xfb, 0xe0, 0xd4, 0xf5, 0xfa, 0xdb, 0xe4, 0xd3, 0xd5,
    0xd5, 0x0c, 0xe9, 0x06, 0x1f, 0x05, 0x11, 0x1a, 0xce, 0x18, 0xcc, 0xe0,
    0xfc, 0xf4, 0xd1, 0x1d, 0xc6, 0xd4, 0xed, 0x1b, 0xd9, 0xf7, 0x0d, 0xd1,
    0xd3, 0xfc, 0xff, 0x22, 0x2a, 0x0c, 0x03, 0xf9, 0x0d, 0x17, 0x05, 0x9a,
    0xc6, 0xe4, 0x19, 0x03, 0xd6, 0xe8, 0x06, 0xf8, 0xd4, 0x16, 0x06, 0xb9,
    0x09, 0x22, 0xfb, 0x01, 0x26, 0x12, 0x0c, 0x20, 0x00, 0x0c, 0x15, 0xd1,
    0xb2, 0xdd, 0x38, 0xe7, 0x24, 0xca, 0x08, 0x0b, 0xb9, 0x20, 0xd6, 0xe6,
    0x08, 0x0f, 0xf2, 0xf5, 0x12, 0xfd, 0xf1, 0xf5, 0x2a, 0xfd, 0xcf, 0xea,
    0x37, 0x0e, 0x36, 0xf3, 0xd1, 0x08, 0xc7, 0xdd, 0x00, 0x04, 0x39, 0xdd,
    0x0b, 0x10, 0xf1, 0xf1, 0x45, 0xb2, 0xbd, 0xfa, 0x1f, 0xeb, 0xab, 0x99,
    0xb6, 0xc4, 0xac, 0xcc, 0x93, 0x1a, 0xbc, 0xd0, 0xc0, 0xa8, 0x47, 0xe8,
    0x56, 0xd5, 0x1a, 0x4c, 0xf0, 0xf4, 0x00, 0xdc, 0xcf, 0xc0, 0x12, 0x0c,
    0x1c, 0x05, 0xc7, 0xf8, 0x19, 0xb9, 0x08, 0x33, 0xf2, 0xc9, 0x0e, 0x1d,
    0x1e, 0xe4, 0x3f, 0x0c, 0xcc, 0xd7, 0xea, 0x23, 0xf0, 0xf4, 0xfd, 0xcd,
    0x7f, 0x17, 0x12, 0x1e, 0x03, 0x06, 0x06, 0xf2, 0xbd, 0x2c, 0xe8, 0xe3,
    0xf3, 0x22, 0x1b, 0xda, 0xa2, 0xce, 0x2a, 0x3e, 0xc2, 0xdd, 0xb8, 0xec,
    0xcb, 0x49, 0x23, 0xc9, 0x19, 0x15, 0xe4, 0xde, 0x95, 0x64, 0x8b, 0x86,
    0x21, 0xf1, 0xbe, 0xb4, 0x20, 0xe2, 0xc4, 0x0d, 0xe3, 0xdc, 0xfd, 0xcf,
    0xc0, 0xcf, 0x30, 0xec, 0x8c, 0x08, 0xf3, 0x1a, 0xef, 0xf7, 0xfa, 0xef,
    0x19, 0xfb, 0xc0, 0x22, 0x1e, 0xd2, 0x10, 0x38, 0xd1, 0x24, 0x09, 0xb1,
    0xf7, 0x1d, 0xe2, 0xe6, 0xcc, 0xf9, 0xfa, 0x2e, 0xc8, 0xe3, 0x23, 0xdc,
    0xde, 0xe0, 0x01, 0x15, 0x29, 0x1e, 0xf4, 0x23, 0xf2, 0x28, 0x1d, 0x18,
    0x2d, 0x1f, 0x37, 0x40, 0x37, 0xda, 0x2b, 0x26, 0xe1, 0xe5, 0x07, 0xdc,
    0x27, 0x10, 0x16, 0x15, 0x08, 0x17, 0x20, 0xe4, 0xb3, 0xe5, 0xe8, 0xcf,
    0xeb, 0xd1, 0x3c, 0xf3, 0xa4, 0xe3, 0xe6, 0x04, 0xc0, 0x05, 0xe3, 0xde,
    0x14, 0x24, 0xa8, 0xbd, 0x25, 0x16, 0xf4, 0xeb, 0x29, 0x1b, 0xce, 0xbd,
    0xc9, 0x16, 0x24, 0x04, 0xcd, 0xf0, 0xcc, 0xb0, 0xd2, 0x01, 0x3d, 0xc1,
    0x08, 0x24, 0xc8, 0x2f, 0x04, 0xe3, 0x28, 0xea, 0xc6, 0xea, 0x1e, 0xe8,
    0x1e, 0xda, 0xc4, 0xeb, 0x31, 0xb7, 0x4d, 0x7b, 0x12, 0xe8, 0xf8, 0xe3,
    0xec, 0xef, 0xf0, 0xc0, 0xf0, 0x24, 0xeb, 0x06, 0xbf, 0x0f, 0xd9, 0x00,
    0x09, 0xf0, 0xda, 0x01, 0xb3, 0xc7, 0xdf, 0xc7, 0xfa, 0x0c, 0x08, 0xe3,
    0x03, 0x0e, 0x09, 0xea, 0xec, 0x0b, 0xfa, 0xf9, 0x81, 0x2e, 0x37, 0xec,
    0x0d, 0x9f, 0x0d, 0x09, 0x98, 0xd4, 0x07, 0xdb, 0x2c, 0x4e, 0xf0, 0x3d,
    0x3a, 0x25, 0xec, 0xbd, 0x00, 0xd0, 0x06, 0x1a, 0x02, 0xf4, 0x07, 0xf6,
    0xd7, 0x03, 0x27, 0x21, 0xd3, 0x06, 0xfb, 0xe6, 0x09, 0xf5, 0x1f, 0x25,
    0x09, 0x07, 0xea, 0x08, 0xff, 0xf5, 0xee, 0xdb, 0x3f, 0xb0, 0xbc, 0xe0,
    0xbb, 0x10, 0x57, 0x0b, 0x13, 0x1d, 0xe2, 0xd9, 0xf3, 0x9b, 0x4a, 0xd6,
    0x35, 0x07, 0xec, 0x2c, 0xe2, 0xc1, 0x83, 0xa2, 0x1d, 0x91, 0xa9, 0x10,
    0x9b, 0x55, 0x13, 0xda, 0xe9, 0xdc, 0xb0, 0xce, 0xee, 0xa3, 0xed, 0xec,
    0x15, 0xf0, 0xa5, 0xef, 0xfc, 0xf2, 0xc5, 0xe9, 0x03, 0x13, 0xef, 0x0c,
    0x18, 0xee, 0xec, 0xe7, 0x26, 0xf8, 0xf2, 0xa6, 0xdb, 0x09, 0xb9, 0xe0,
    0x91, 0x1a, 0x15, 0xf7, 0xd7, 0x10, 0xe8, 0x1d, 0x07, 0x10, 0x17, 0xd9,
    0xe9, 0xd9, 0xc6, 0xc3, 0xf0, 0x4a, 0xf2, 0xec, 0x40, 0x10, 0xf1, 0x11,
    0xa5, 0x04, 0xf9, 0xd8, 0x13, 0xf6, 0xc2, 0x59, 0xed, 0x30, 0xf7, 0x23,
    0x00, 0xd8, 0x93, 0x9c, 0x1d, 0x02, 0xf1, 0xee, 0xee, 0x22, 0xc3, 0x00,
    0x9f, 0xe3, 0x2e, 0x1e, 0x19, 0xff, 0x91, 0x19, 0xe5, 0x03, 0xa1, 0x03,
    0xfd, 0x02, 0x0a, 0x43, 0x23, 0xef, 0xc5, 0x81, 0xb7, 0x00, 0x18, 0xbf,
    0xf7, 0xe5, 0xc6, 0x16, 0xe0, 0xe0, 0x25, 0x0b, 0xe5, 0xf7, 0x11, 0xdb,
    0xf8, 0xbf, 0x1a, 0xc2, 0xc4, 0x0e, 0x02, 0x2e, 0xdf, 0xe2, 0xf4, 0xf6,
    0xfd, 0x17, 0x30, 0x3a, 0xcb, 0xde, 0xc3, 0xe4, 0xf2, 0xbe, 0x13, 0xed,
    0x16, 0xf6, 0x11, 0x19, 0x1c, 0xd7, 0x14, 0xe3, 0xc8, 0xdc, 0xcf, 0xb8,
    0xc9, 0x16, 0xf0, 0xea, 0x29, 0xe0, 0xec, 0xfb, 0x11, 0x1a, 0xd8, 0x1e,
    0xe1, 0x14, 0xfb, 0xfb, 0x14, 0xe8, 0x08, 0xf8, 0xd7, 0x1c, 0xd7, 0xc0,
    0xcb, 0xf9, 0xc4, 0xbc, 0x48, 0x37, 0x30, 0xe0, 0x20, 0x29, 0x16, 0xe2,
    0x2e, 0xca, 0x08, 0x12, 0xb4, 0x20, 0xef, 0xe9, 0x09, 0x1c, 0x17, 0xf5,
    0xfd, 0x16, 0x13, 0x1f, 0x0b, 0xd4, 0xf0, 0x06, 0xad, 0xe1, 0xec, 0xc7,
    0xb7, 0xdb, 0xeb, 0xd0, 0x02, 0xc4, 0xfd, 0x2e, 0xdf, 0xba, 0xc1, 0xe3,
    0xf6, 0x2e, 0x0b, 0xd4, 0xe9, 0xc5, 0x0b, 0xf7, 0xae, 0x05, 0xf5, 0xf0,
    0xf3, 0x01, 0x38, 0xfa, 0x1b, 0xe0, 0xfd, 0x26, 0xdb, 0xe3, 0xca, 0xcb,
    0x16, 0x32, 0x05, 0xc7, 0xf5, 0x36, 0xeb, 0x1f, 0xfe, 0xfe, 0x0e, 0xcf,
    0xfd, 0x94, 0xf6, 0xfb, 0xc1, 0xdb, 0xec, 0xe1, 0xd2, 0x0d, 0x18, 0xbf,
    0xfa, 0x11, 0xf5, 0xf5, 0xee, 0xfd, 0x07, 0xfa, 0xcf, 0x06, 0xce, 0xe3,
    0x09, 0xaf, 0x15, 0x0a, 0xe2, 0xaf, 0xee, 0xfa, 0xd2, 0x37, 0xe1, 0xf5,
    0x10, 0x19, 0x14, 0x15, 0x02, 0x08, 0x01, 0x81, 0x32, 0xfd, 0x10, 0x0e,
    0x1e, 0x0e, 0xe8, 0xed, 0xe8, 0xe5, 0xf3, 0xe7, 0x39, 0xff, 0x1a, 0x0a,
    0x0c, 0xc8, 0x34, 0xe5, 0xf2, 0xf1, 0x11, 0xeb, 0xe7, 0x10, 0xf4, 0xf6,
    0xe5, 0x08, 0x03, 0xf8, 0x2d, 0x14, 0xea, 0x14, 0x05, 0x0d, 0x06, 0x0a,
    0xec, 0x0a, 0xa6, 0xd2, 0x03, 0xdb, 0xea, 0x0a, 0x19, 0xf4, 0xd2, 0xda,
    0xd9, 0x22, 0x11, 0xe4, 0xa5, 0xf7, 0xb8, 0xf9, 0x00, 0x0e, 0x09, 0xf1,
    0x06, 0x25, 0x12, 0x1f, 0xb3, 0x18, 0xe4, 0x1b, 0xba, 0xdf, 0x22, 0x3c,
    0x0a, 0x09, 0xe9, 0x13, 0x0b, 0xdb, 0x06, 0xfd, 0x07, 0xdf, 0xdb, 0x32,
    0xc8, 0x00, 0xfa, 0xa7, 0x08, 0xa8, 0xb0, 0x4c, 0xa3, 0x07, 0xc0, 0xa8,
    0xb2, 0xf0, 0x2c, 0xf7, 0xc6, 0x26, 0xb6, 0x92, 0x04, 0x09, 0xfd, 0xf6,
    0xf2, 0x0f, 0xce, 0x0f, 0x29, 0xd0, 0xb8, 0xfb, 0x12, 0x09, 0xe7, 0x2a,
    0x07, 0xf5, 0x1a, 0xc6, 0xf7, 0xe5, 0xf1, 0xce, 0x0b, 0x04, 0x03, 0x03,
    0xf7, 0xe1, 0x43, 0x19, 0xfa, 0xd4, 0x35, 0xc8, 0xfa, 0xee, 0xff, 0x00,
    0xe0, 0x2a, 0xfc, 0x21, 0xe7, 0xc4, 0x49, 0x0d, 0xc3, 0x09, 0xe4, 0xd1,
    0x22, 0x05, 0xc9, 0xf4, 0x0f, 0x9b, 0xae, 0xef, 0x26, 0xeb, 0xd1, 0x01,
    0xd5, 0x0d, 0x02, 0xad, 0x29, 0x31, 0xeb, 0xb2, 0x16, 0xef, 0x37, 0x08,
    0x14, 0xcf, 0xea, 0x1d, 0x0d, 0xf3, 0x09, 0xdc, 0x36, 0x0c, 0x37, 0x27,
    0x16, 0xd0, 0xe5, 0x8d, 0x0f, 0x18, 0x2a, 0x33, 0xf8, 0x06, 0x27, 0x0f,
    0x25, 0xe5, 0xff, 0xc8, 0xd4, 0x05, 0x05, 0x0a, 0xf3, 0xf2, 0x19, 0x29,
    0xf9, 0x02, 0xbf, 0xf0, 0x30, 0x13, 0x0d, 0x1d, 0x06, 0x04, 0x15, 0x0c,
    0x0a, 0xed, 0xfa, 0xdb, 0xf7, 0xcb, 0xde, 0x36, 0xc8, 0x0d, 0xdf, 0xe4,
    0xcf, 0xf0, 0x17, 0xe5, 0x01, 0x04, 0xe0, 0x11, 0xf3, 0xf0, 0x12, 0xfc,
    0xcb, 0x30, 0xcf, 0x17, 0x27, 0xe1, 0xba, 0x19, 0x04, 0x15, 0xc9, 0x0b,
    0x20, 0xe1, 0xe8, 0x6c, 0xdc, 0xd6, 0xf3, 0x81, 0x0b, 0x07, 0x03, 0xe7,
    0x01, 0x28, 0x49, 0x2d, 0x4a, 0x32, 0x02, 0xe9, 0x12, 0x15, 0xf1, 0xce,
    0xc0, 0xba, 0x1b, 0x41, 0xe9, 0xd0, 0xf6, 0xe3, 0x91, 0x0f, 0xec, 0xc2,
    0xec, 0x11, 0xd1, 0xef, 0x41, 0xe6, 0x1a, 0xbb, 0x3e, 0x27, 0xde, 0xd4,
    0xee, 0xd4, 0x22, 0xc7, 0xe5, 0xd4, 0xf4, 0xfd, 0xfe, 0x17, 0xf3, 0x1b,
    0x08, 0xf0, 0x09, 0x04, 0xc8, 0x11, 0xee, 0xb5, 0x0d, 0x9a, 0x0c, 0x10,
    0x12, 0xc9, 0xe1, 0xbe, 0x13, 0x17, 0xf2, 0x07, 0x0a, 0x10, 0xcf, 0xc4,
    0xad, 0xae, 0xe3, 0xb5, 0xed, 0xd4, 0xcd, 0x0c, 0x2b, 0x22, 0x08, 0xc9,
    0xed, 0xe4, 0x1a, 0xee, 0xe3, 0xd0, 0x09, 0xd6, 0xf4, 0x16, 0x04, 0xe3,
    0xc6, 0x42, 0xd4, 0xf8, 0xf1, 0xef, 0xe2, 0xdf, 0xdd, 0x3e, 0xe6, 0x0f,
    0x13, 0xbc, 0xf4, 0xe5, 0xf3, 0xd4, 0xef, 0x2c, 0x03, 0xfe, 0xf7, 0xf0,
    0x0b, 0xe1, 0x2d, 0x16, 0x9b, 0x1d, 0x1d, 0x42, 0xf0, 0xc3, 0xea, 0xc2,
    0xd0, 0xda, 0x06, 0x2b, 0xc7, 0xe2, 0xea, 0x0b, 0xfd, 0x94, 0x2a, 0xd4,
    0xe2, 0x05, 0xbc, 0xb1, 0xd2, 0xb6, 0xe0, 0xe8, 0xd4, 0xf5, 0x1e, 0x27,
    0x9c, 0x16, 0xe9, 0xce, 0x5e, 0x0d, 0xf9, 0xd4, 0x14, 0x18, 0xff, 0xf1,
    0x06, 0xe8, 0xc5, 0xaf, 0x0d, 0x90, 0xb7, 0x24, 0x06, 0x2a, 0xa9, 0xbc,
    0x23, 0xff, 0x1e, 0x9d, 0x99, 0xed, 0x9e, 0xf7, 0xf4, 0x24, 0xf0, 0xb7,
    0xd2, 0xf6, 0x02, 0xf3, 0xf1, 0xd3, 0x9e, 0xaa, 0x91, 0xbd, 0xc0, 0xa0,
    0xf1, 0x38, 0xd9, 0x22, 0x02, 0xb5, 0xd0, 0xe3, 0xb2, 0xfc, 0xdd, 0xa3,
    0xec, 0xeb, 0x36, 0x54, 0x2b, 0x0d, 0xfc, 0x56, 0xae, 0x16, 0xfe, 0xbb,
    0xc3, 0x01, 0xda, 0x44, 0xd1, 0x1c, 0xed, 0xf8, 0xc8, 0xf1, 0x2c, 0xec,
    0x13, 0x06, 0x81, 0x29, 0x34, 0xfc, 0x06, 0xd1, 0x6c, 0x0e, 0xbf, 0x33,
    0x3f, 0x16, 0xf1, 0xde, 0x16, 0x16, 0xef, 0x17, 0x3e, 0xdc, 0x0d, 0x17,
    0x30, 0xe0, 0x4e, 0x15, 0x0e, 0xfa, 0x35, 0x87, 0x02, 0xf2, 0x07, 0x0c,
    0x0c, 0xd9, 0xf7, 0xf3, 0xec, 0xa4, 0xfa, 0x21, 0xfb, 0xf3, 0xe0, 0x19,
    0x15, 0xe9, 0xe7, 0xb7, 0x21, 0xf6, 0x43, 0xab, 0x33, 0xed, 0xfb, 0xf1,
    0xca, 0x15, 0xd1, 0xe4, 0xcc, 0xf0, 0xff, 0x07, 0x29, 0x02, 0xb7, 0x22,
    0xbd, 0xdd, 0x19, 0xfb, 0xd8, 0xc7, 0xc9, 0x30, 0x2a, 0xf3, 0x22, 0x3e,
    0x20, 0xd1, 0xde, 0xc5, 0x4c, 0x11, 0xfa, 0xe8, 0x10, 0x06, 0x00, 0x01,
    0xc8, 0xe3, 0x07, 0xa4, 0xd1, 0xeb, 0xc4, 0x28, 0xa7, 0xe1, 0x10, 0x1b,
    0x0d, 0xdd, 0xed, 0xf6, 0x03, 0x0c, 0x25, 0xd7, 0x05, 0x06, 0xf2, 0xf2,
    0xe7, 0xe8, 0xf5, 0xe2, 0xfd, 0xea, 0x08, 0xf2, 0x3b, 0x0e, 0xfd, 0x04,
    0x10, 0x0e, 0x00, 0xf7, 0x34, 0x03, 0x2a, 0xf1, 0xee, 0x0f, 0xe1, 0x0b,
    0x09, 0x10, 0xf4, 0xeb, 0xf2, 0xe7, 0xbb, 0x11, 0xec, 0x1c, 0xde, 0x13,
    0x0b, 0xe9, 0x0f, 0x29, 0xcf, 0xe3, 0xc1, 0xf6, 0xc8, 0x19, 0xd7, 0x03,
    0xf8, 0x0d, 0x00, 0xbc, 0xf5, 0x1c, 0x24, 0x0c, 0x81, 0x3b, 0xfa, 0xd5,
    0x34, 0xda, 0xf5, 0xf5, 0xac, 0xfd, 0xfd, 0x11, 0xfc, 0x24, 0xd0, 0x15,
    0x0a, 0x12, 0xef, 0xf6, 0xe6, 0xe1, 0x2c, 0x03, 0xaa, 0xf6, 0x25, 0xd1,
    0xe4, 0xd3, 0xf4, 0xdb, 0xf1, 0x16, 0x12, 0x1a, 0x20, 0xfe, 0x16, 0x2a,
    0x0a, 0xf4, 0xf3, 0xe7, 0xec, 0xe3, 0xce, 0xff, 0xbe, 0xdd, 0xb2, 0xe0,
    0xe2, 0xfd, 0xff, 0xf9, 0xb9, 0xfb, 0xd0, 0x1c, 0xda, 0xee, 0x18, 0xc8,
    0x18, 0xf9, 0xf7, 0x0f, 0x02, 0x0f, 0x01, 0xda, 0xd5, 0xf2, 0xe4, 0xe8,
    0xe0, 0x0f, 0x0b, 0x21, 0xa8, 0xdc, 0xe8, 0xf6, 0x23, 0xe9, 0x16, 0x24,
    0x1c, 0x07, 0xdd, 0xf8, 0x07, 0xdd, 0xe6, 0x1b, 0xf1, 0x02, 0xd9, 0x07,
    0xf7, 0x20, 0x20, 0xe7, 0xd2, 0x25, 0xd2, 0xe0, 0x1f, 0xfe, 0xf6, 0x1c,
    0x04, 0xef, 0x18, 0x46, 0x04, 0xd6, 0xeb, 0xf9, 0x41, 0xea, 0x01, 0x07,
    0x0d, 0xf7, 0x08, 0xe4, 0x13, 0xff, 0xfb, 0xf2, 0xe1, 0xe7, 0x35, 0x11,
    0xf2, 0xe7, 0x07, 0xf7, 0xf0, 0xf1, 0xe5, 0x1d, 0x24, 0xe4, 0xef, 0x14,
    0xcf, 0x18, 0xe8, 0xed, 0x1b, 0x3d, 0xef, 0xdf, 0x2b, 0xd1, 0x10, 0x05,
    0x06, 0x0a, 0xf2, 0x10, 0xf6, 0x03, 0x22, 0xad, 0x28, 0xcc, 0x3b, 0x00,
    0x3c, 0xff, 0xea, 0xc0, 0x0a, 0x2d, 0x0e, 0xea, 0x35, 0xf4, 0x0b, 0x51,
    0xfd, 0xe0, 0x01, 0x15, 0xc6, 0xd6, 0xf7, 0xd2, 0xe3, 0xea, 0xd9, 0x01,
    0xdb, 0x07, 0xe0, 0x08, 0x01, 0xe9, 0xe8, 0x22, 0xe8, 0x1a, 0xcb, 0xbf,
    0xdb, 0x04, 0xfb, 0x03, 0xaf, 0x30, 0x95, 0xc4, 0x22, 0xbe, 0x23, 0x09,
    0x19, 0x1a, 0xde, 0x29, 0xf6, 0xf8, 0x2d, 0x81, 0x1c, 0x26, 0xaa, 0x2e,
    0xb4, 0xbe, 0x0c, 0xf9, 0xc1, 0x01, 0x1f, 0x95, 0xcd, 0xd1, 0x16, 0x1f,
    0x07, 0xeb, 0x81, 0xb1, 0x2f, 0xd9, 0x34, 0xb2, 0x3b, 0xf2, 0xb1, 0x27,
    0x93, 0xbc, 0x06, 0xcd, 0xe6, 0x05, 0x0d, 0xa2, 0xd4, 0xea, 0xe8, 0xfb,
    0x10, 0xa3, 0xda, 0xb2, 0xf0, 0x17, 0xe3, 0x42, 0xd4, 0xae, 0xf6, 0xee,
    0xf3, 0xd5, 0xff, 0xca, 0xd3, 0x08, 0x11, 0x91, 0xd5, 0xcf, 0x31, 0x40,
    0xe4, 0xca, 0xc0, 0xdd, 0x02, 0xc7, 0x23, 0x0f, 0x3d, 0xab, 0xe0, 0x41,
    0xf6, 0xb7, 0x01, 0xb9, 0xde, 0x08, 0xcc, 0xa4, 0xd9, 0xca, 0x2a, 0x18,
    0xe0, 0x35, 0xf3, 0xd9, 0xdc, 0xf6, 0x2d, 0x39, 0x1c, 0xc4, 0xf0, 0x34,
    0x62, 0xf8, 0x05, 0x23, 0x06, 0xf1, 0xc2, 0x0c, 0x19, 0xff, 0xd3, 0xff,
    0x0f, 0xe3, 0x04, 0x17, 0xf7, 0xed, 0xbe, 0xdc, 0xf1, 0xfb, 0x17, 0xc0,
    0x36, 0x13, 0x07, 0x11, 0x0f, 0x04, 0x17, 0xfd, 0x1f, 0xc9, 0x2b, 0x49,
    0xa1, 0x33, 0xee, 0xfd, 0x34, 0x35, 0x30, 0xf6, 0x16, 0x9a, 0x0c, 0x35,
    0x13, 0x00, 0xc3, 0xa3, 0xe4, 0xed, 0xc4, 0xc3, 0x0d, 0xf6, 0x11, 0x13,
    0x1d, 0xff, 0xb0, 0xdb, 0x0a, 0x01, 0x06, 0xf7, 0x18, 0xdc, 0xe4, 0x09,
    0xdc, 0xd7, 0x27, 0xcc, 0x00, 0x23, 0x19, 0x2b, 0xc4, 0x35, 0x00, 0x05,
    0xbb, 0x06, 0xcb, 0xe8, 0x36, 0x15, 0x00, 0xe3, 0xf5, 0x1c, 0x1c, 0xed,
    0xd3, 0xf4, 0x81, 0xdf, 0x22, 0x33, 0x04, 0x16, 0x07, 0x28, 0xf5, 0x01,
    0x14, 0xe2, 0x11, 0x1d, 0xb8, 0xff, 0xf5, 0xed, 0x11, 0x19, 0xe7, 0x34,
    0xdb, 0xf9, 0x47, 0x26, 0x16, 0x05, 0xf3, 0xcd, 0xdb, 0x05, 0x06, 0xf2,
    0xf3, 0xf5, 0x16, 0x30, 0xe0, 0xbd, 0x03, 0x0b, 0xba, 0x18, 0xac, 0xca,
    0xcb, 0x1c, 0xe4, 0xcf, 0x34, 0x1e, 0x2e, 0xe6, 0x26, 0xed, 0x07, 0xca,
    0xc4, 0xd2, 0x02, 0xfa, 0xed, 0xee, 0x24, 0xde, 0x06, 0xff, 0xec, 0x23,
    0x01, 0xf5, 0xe4, 0x19, 0xe9, 0x3c, 0xe3, 0xc3, 0xf6, 0x0b, 0xd8, 0x04,
    0x27, 0xbe, 0xe0, 0xe6, 0xfa, 0xd1, 0xda, 0x1e, 0xe9, 0xf3, 0xcc, 0xf5,
    0xca, 0xc6, 0xe7, 0xe8, 0x03, 0xee, 0x01, 0x0f, 0xab, 0x05, 0xf3, 0xe5,
    0xcc, 0xe1, 0xfd, 0xec, 0xe0, 0xce, 0xeb, 0xdd, 0xeb, 0x40, 0xcc, 0xd2,
    0x00, 0x17, 0xe8, 0x03, 0x05, 0xf7, 0xe3, 0x06, 0xe6, 0x1f, 0x08, 0xe5,
    0x0e, 0xc4, 0xfa, 0x08, 0xd6, 0xe2, 0xe7, 0x04, 0xf6, 0x26, 0xf2, 0x01,
    0xfe, 0xf7, 0x0a, 0x1d, 0xc6, 0x2b, 0x1a, 0xc4, 0x07, 0xfd, 0xe5, 0x21,
    0x31, 0xb5, 0x11, 0x1e, 0xfb, 0xcb, 0x28, 0x20, 0x08, 0xee, 0xcc, 0x14,
    0xdc, 0xc4, 0xeb, 0xc6, 0xdc, 0xdf, 0x90, 0x18, 0x9e, 0xf7, 0xad, 0xcd,
    0xde, 0x0f, 0x04, 0xbb, 0x98, 0xe5, 0xa5, 0xe4, 0x05, 0x1a, 0x1f, 0xec,
    0x1b, 0xcf, 0x18, 0x52, 0x17, 0x3d, 0x17, 0x97, 0xc2, 0xbd, 0x09, 0xa0,
    0x0b, 0xfc, 0xcd, 0xd9, 0xbf, 0x1b, 0x00, 0x08, 0xe8, 0xe7, 0xd7, 0x1b,
    0xf8, 0xd2, 0xfc, 0xe6, 0x24, 0xd0, 0x38, 0xa3, 0x42, 0xeb, 0x2b, 0x3c,
    0xd1, 0xfa, 0xe6, 0xb4, 0x04, 0x0a, 0x10, 0x49, 0x1f, 0xf1, 0x07, 0xfc,
    0xfc, 0xa5, 0x04, 0xc5, 0x01, 0xbf, 0xf2, 0x99, 0x5e, 0xe0, 0xd5, 0x30,
    0x06, 0xe3, 0x07, 0xdf, 0x0b, 0x1d, 0xfc, 0x1a, 0x4e, 0xe6, 0x28, 0x43,
    0x1b, 0xf5, 0xf9, 0xc3, 0xdc, 0x14, 0x07, 0x26, 0x25, 0x07, 0x25, 0xe3,
    0xd9, 0x02, 0x1e, 0x31, 0xf2, 0xcb, 0xf6, 0x31, 0xb2, 0xe4, 0xa0, 0xd7,
    0xd7, 0x36, 0xdc, 0xa8, 0xde, 0x37, 0x05, 0xe6, 0x24, 0x10, 0x02, 0x26,
    0x08, 0xbc, 0xa9, 0xef, 0x2f, 0x5f, 0x20, 0x97, 0x5d, 0xfd, 0xdc, 0x48,
    0x94, 0xf0, 0x55, 0xdc, 0xe3, 0xc9, 0xf4, 0x98, 0x25, 0xe1, 0x34, 0x2d,
    0x19, 0xae, 0xb8, 0xb4, 0x25, 0xc4, 0x17, 0xef, 0x3d, 0xf7, 0xb2, 0x2f,
    0xf0, 0xce, 0x2e, 0x99, 0xc1, 0xfe, 0x11, 0xc6, 0xff, 0xfa, 0xf5, 0x0b,
    0x24, 0xd3, 0xcf, 0xf7, 0x15, 0x81, 0x0a, 0xd6, 0xcf, 0xf4, 0x8e, 0x0b,
    0x8b, 0xdb, 0xcd, 0xc2, 0xaf, 0xf4, 0xec, 0xf1, 0x9a, 0xd9, 0xeb, 0xf9,
    0xd5, 0xf0, 0xb0, 0x12, 0xe9, 0xb1, 0x0c, 0xdc, 0xce, 0xf3, 0xb3, 0x1b,
    0xb9, 0x09, 0x91, 0xa7, 0x0f, 0x16, 0x61, 0xc1, 0x16, 0xf0, 0xf5, 0x16,
    0x16, 0xff, 0xdf, 0xd3, 0xc2, 0xeb, 0x16, 0x0e, 0x32, 0x00, 0x19, 0x38,
    0xee, 0xf0, 0xee, 0xe8, 0xc8, 0x13, 0xf7, 0xeb, 0xd3, 0xe4, 0xe0, 0xfa,
    0xc1, 0x21, 0xe0, 0x0c, 0x1b, 0xeb, 0xff, 0xe5, 0xe9, 0x2b, 0xc9, 0xda,
    0xfa, 0xdf, 0xc7, 0xe4, 0xb5, 0x3f, 0x20, 0xf4, 0xfc, 0x1f, 0x5b, 0xe0,
    0xdf, 0x01, 0x26, 0xf9, 0xf9, 0x11, 0x08, 0x81, 0xf4, 0x4e, 0x85, 0x11,
    0xd3, 0xe2, 0xb5, 0xc2, 0xe4, 0xad, 0xc8, 0x9f, 0xfb, 0xfa, 0x35, 0x06,
    0x16, 0xe5, 0xa9, 0xbc, 0x14, 0x14, 0x0a, 0xcd, 0x32, 0xf0, 0x03, 0x3f,
    0x26, 0xcb, 0x31, 0x29, 0xde, 0xd4, 0xc7, 0xbf, 0x04, 0xee, 0xc0, 0xfb,
    0x1a, 0xf3, 0xb9, 0xfb, 0x01, 0x04, 0xec, 0x1b, 0xed, 0x90, 0xe9, 0xed,
    0x02, 0xc4, 0x1a, 0x37, 0xf0, 0xfe, 0x05, 0x86, 0x12, 0xe6, 0x02, 0x34,
    0x23, 0xf7, 0xa3, 0x09, 0xfb, 0xc7, 0x28, 0xe2, 0x42, 0xd7, 0xa4, 0x32,
    0xac, 0xb5, 0x11, 0xd7, 0xdf, 0xe9, 0x08, 0xdc, 0xe1, 0xd8, 0x3b, 0x01,
    0x03, 0xd6, 0xf9, 0xaf, 0x0c, 0x31, 0x45, 0x07, 0x01, 0xe4, 0xcf, 0x2f,
    0xed, 0xc7, 0xe1, 0xc7, 0xe8, 0x2a, 0x27, 0x1b, 0x12, 0xcd, 0xc8, 0xd1,
    0xdb, 0xc0, 0x11, 0x02, 0xe7, 0xcf, 0xc6, 0x2f, 0xc6, 0xcb, 0x33, 0x98,
    0x03, 0x0d, 0xe2, 0xdb, 0xc2, 0x06, 0x00, 0xd0, 0xd9, 0xb1, 0x0d, 0x3a,
    0xbc, 0xf7, 0xe2, 0xf9, 0x0c, 0x16, 0x2d, 0x08, 0x36, 0x96, 0x07, 0x63,
    0x2e, 0xf4, 0xde, 0xbc, 0xe4, 0x14, 0x17, 0x13, 0xeb, 0xd4, 0xe8, 0x09,
    0x0c, 0xfc, 0x13, 0x39, 0xc2, 0x12, 0xec, 0xda, 0xfb, 0xe4, 0xe5, 0x35,
    0x15, 0x11, 0xf8, 0x07, 0xea, 0x03, 0x26, 0xf3, 0xc7, 0xc2, 0xe8, 0xe9,
    0x95, 0x07, 0xd5, 0xd4, 0x18, 0x33, 0x06, 0xe9, 0xfe, 0xad, 0x15, 0xd9,
    0xdd, 0x17, 0x0d, 0x16, 0xd7, 0x27, 0x0c, 0xe4, 0x16, 0xbc, 0xfc, 0x13,
    0x9e, 0xdd, 0xda, 0xa9, 0x0b, 0x11, 0xf9, 0x0d, 0x39, 0xc5, 0x38, 0x35,
    0x2f, 0xee, 0xf4, 0xf5, 0xfe, 0xe4, 0xa7, 0x00, 0xfa, 0x20, 0x0a, 0x11,
    0x37, 0x0c, 0xef, 0x02, 0x10, 0xac, 0x0e, 0xdf, 0xb0, 0x3b, 0xe4, 0xd6,
    0xfd, 0xfb, 0x29, 0x04, 0x08, 0xdd, 0xc3, 0x12, 0x01, 0x3a, 0x0e, 0xc8,
    0x16, 0xff, 0x1c, 0xfb, 0xde, 0x23, 0xf0, 0x04, 0xaf, 0x35, 0xca, 0x16,
    0xd1, 0x38, 0xec, 0x19, 0x30, 0xc3, 0xc6, 0x10, 0x23, 0x2b, 0xda, 0x18,
    0xe1, 0xf1, 0x0d, 0x01, 0xfc, 0xf5, 0xf4, 0xc7, 0xbd, 0x20, 0xde, 0x29,
    0xf7, 0x24, 0x01, 0x10, 0x1f, 0xc0, 0x1b, 0xfb, 0x02, 0xf4, 0x25, 0xe4,
    0xe5, 0xf1, 0xe9, 0xcb, 0x0c, 0xd9, 0x21, 0x5d, 0xec, 0xb6, 0x37, 0xcc,
    0x19, 0xee, 0x16, 0xe9, 0xea, 0xea, 0xff, 0xdf, 0xfb, 0xd9, 0xe9, 0xd6,
    0x1e, 0x15, 0xf5, 0x04, 0xe4, 0xba, 0xe6, 0xe4, 0xf5, 0x05, 0xe9, 0xe8,
    0x27, 0xf6, 0xd8, 0xd3, 0xd6, 0xe8, 0xe8, 0x00, 0xe2, 0xe4, 0xd4, 0xb1,
    0x24, 0xc2, 0x1f, 0x0c, 0xf2, 0x81, 0xe2, 0xb1, 0xcf, 0x11, 0xa1, 0xb9,
    0xa3, 0x0d, 0xef, 0xe6, 0xd7, 0xc6, 0xe3, 0xbf, 0x11, 0xe1, 0x0a, 0x1f,
    0xfb, 0x1c, 0x98, 0xc3, 0x2d, 0x13, 0x0b, 0xe0, 0xf3, 0x08, 0x0e, 0xec,
    0xd3, 0xed, 0x07, 0x39, 0xbb, 0xf2, 0x17, 0x9d, 0x26, 0xb3, 0x08, 0xfd,
    0x21, 0x1a, 0xa5, 0xef, 0xf7, 0x19, 0x17, 0xfe, 0x0b, 0xd7, 0x01, 0xf2,
    0x12, 0xce, 0x12, 0x2f, 0xce, 0x1f, 0x22, 0x9a, 0xd9, 0xdb, 0x0d, 0xec,
    0xf8, 0xdf, 0xb3, 0x89, 0xf7, 0xc2, 0x22, 0xf5, 0x28, 0x05, 0xac, 0x1c,
    0xa2, 0xbb, 0x02, 0xfb, 0xa8, 0xac, 0xf0, 0x01, 0xe8, 0xcd, 0x11, 0xdc,
    0xe7, 0xce, 0x0d, 0xc5, 0x09, 0x24, 0x32, 0x36, 0x3c, 0xce, 0x18, 0x4b,
    0x26, 0xc7, 0xfd, 0x99, 0xb7, 0x0c, 0x15, 0x30, 0xeb, 0xed, 0xf7, 0x06,
    0xf3, 0xce, 0x19, 0x2d, 0xef, 0x07, 0xed, 0x28, 0xc3, 0xd9, 0xde, 0xd3,
    0xe0, 0x43, 0xf9, 0xb3, 0xe3, 0x22, 0xdb, 0x05, 0xd3, 0xf7, 0xea, 0xda,
    0xf3, 0x05, 0xed, 0x36, 0xca, 0x84, 0xad, 0xbb, 0x0b, 0xd6, 0x26, 0x12,
    0x26, 0x26, 0xda, 0xf4, 0x1b, 0xd9, 0xf1, 0x22, 0xbe, 0xf6, 0xe7, 0x07,
    0xbb, 0x2e, 0x11, 0xcf, 0xd5, 0x19, 0x9f, 0x0d, 0xf5, 0x1c, 0x04, 0xec,
    0x00, 0xce, 0xe3, 0x28, 0x0c, 0xf5, 0x1a, 0xc3, 0x0c, 0xfa, 0xe1, 0xc3,
    0x27, 0xb1, 0x00, 0xfa, 0xeb, 0xf3, 0xf3, 0xe4, 0xe8, 0x06, 0x1c, 0xf5,
    0x02, 0xe7, 0x17, 0xf7, 0xfd, 0xcd, 0xe5, 0x01, 0x2f, 0xc3, 0xcc, 0x12,
    0xd3, 0x33, 0xff, 0xdd, 0x1c, 0x4b, 0xe3, 0xfa, 0x37, 0x81, 0x1a, 0xcb,
    0x1a, 0xe9, 0xe3, 0xea, 0x06, 0xdb, 0xff, 0xff, 0x04, 0x00, 0x00, 0x00,
    0x60, 0x00, 0x00, 0x00, 0x7a, 0x0f, 0x00, 0x00, 0xb2, 0x0d, 0x00, 0x00,
    0xfa, 0x05, 0x00, 0x00, 0x93, 0x05, 0x00, 0x00, 0x11, 0x02, 0x00, 0x00,
    0xdf, 0x0c, 0x00, 0x00, 0x75, 0x0a, 0x00, 0x00, 0x70, 0x08, 0x00, 0x00,
    0x6a, 0x0a, 0x00, 0x00, 0xe8, 0x0c, 0x00, 0x00, 0xba, 0x09, 0x00, 0x00,
    0x15, 0x0b, 0x00, 0x00, 0x58, 0x0c, 0x00, 0x00, 0xed, 0x0d, 0x00, 0x00,
    0xe9, 0x09, 0x00, 0x00, 0xc8, 0x08, 0x00, 0x00, 0x27, 0x10, 0x00, 0x00,
    0xd4, 0x03, 0x00, 0x00, 0x34, 0x0e, 0x00, 0x00, 0x33, 0x04, 0x00, 0x00,
    0x7c, 0x0b, 0x00, 0x00, 0xda, 0x0d, 0x00, 0x00, 0xed, 0x0d, 0x00, 0x00,
    0xb8, 0x0a, 0x00, 0x00, 0x72, 0xdb, 0xff, 0xff, 0x04, 0x00, 0x00, 0x00,
    0x20, 0x01, 0x00, 0x00, 0xd7, 0xc5, 0x4a, 0x6e, 0x35, 0xad, 0xc7, 0xff,
    0x7f, 0x7a, 0x4d, 0x26, 0x53, 0xe8, 0x0e, 0x28, 0x93, 0x5f, 0xc4, 0xaa,
    0xb0, 0xda, 0xdf, 0x4e, 0xa6, 0xa6, 0x38, 0xb8, 0x8e, 0x2e, 0x97, 0xd0,
    0x7f, 0xb5, 0x9d, 0x97, 0x53, 0xa3, 0xcd, 0x08, 0xb0, 0x49, 0xae, 0xff,
    0x1f, 0xd7, 0x0a, 0x85, 0x99, 0x99, 0xf8, 0xe0, 0x59, 0xde, 0xae, 0x34,
    0xe6, 0xfa, 0x81, 0x95, 0xf2, 0x93, 0x3a, 0xeb, 0x21, 0xef, 0xf3, 0xd0,
    0x1f, 0xf2, 0x09, 0xf0, 0xce, 0xd9, 0x7f, 0x06, 0x37, 0x4f, 0xeb, 0x02,
    0xe0, 0xf9, 0xb5, 0xd3, 0x5a, 0xd6, 0x1c, 0xcd, 0xde, 0x53, 0x18, 0xce,
    0xbc, 0xd7, 0xa0, 0x73, 0x0d, 0x00, 0xe8, 0x42, 0xed, 0x1c, 0x28, 0xf2,
    0xef, 0xd0, 0xf7, 0xee, 0xf2, 0xf4, 0x07, 0x04, 0x04, 0x09, 0x05, 0x0c,
    0xdc, 0xf5, 0x7f, 0xde, 0x5c, 0x59, 0xf7, 0x1b, 0x56, 0xe1, 0xdd, 0xd9,
    0xec, 0xa7, 0x15, 0xd0, 0xaf, 0x2a, 0x01, 0x69, 0xfb, 0xee, 0xd1, 0x7f,
    0xbd, 0xcf, 0xcc, 0xb5, 0xc0, 0xde, 0xe7, 0x23, 0x5a, 0xea, 0x72, 0x7f,
    0xf8, 0x2b, 0x00, 0xd8, 0xdc, 0xde, 0xf7, 0xe5, 0x03, 0x12, 0xe5, 0xdf,
    0xf2, 0xf7, 0xf2, 0xe7, 0x18, 0xe2, 0xd8, 0x4c, 0x81, 0x9a, 0xfc, 0x99,
    0x5a, 0xf5, 0xd2, 0x18, 0xb9, 0x41, 0x5e, 0x40, 0x5b, 0x98, 0xa5, 0x1b,
    0xe7, 0xad, 0xfa, 0xb1, 0xd5, 0xd7, 0x0e, 0xee, 0xe4, 0x15, 0x04, 0x31,
    0x07, 0xd8, 0xe0, 0x0a, 0xf9, 0xdd, 0x42, 0xd9, 0x67, 0x61, 0xff, 0xeb,
    0x7f, 0xed, 0xeb, 0xc3, 0xc7, 0x41, 0x7f, 0xe6, 0x15, 0xbc, 0xe2, 0xd6,
    0xe4, 0xe1, 0x58, 0x65, 0xf2, 0x34, 0xe0, 0xd7, 0xd8, 0xd3, 0xdc, 0xda,
    0x0f, 0xda, 0x05, 0xc1, 0x1b, 0xfe, 0x15, 0x22, 0x5e, 0xc5, 0x86, 0x9c,
    0xc2, 0xe0, 0xf9, 0xed, 0xb6, 0xe7, 0x66, 0xe0, 0xee, 0x23, 0x81, 0xe8,
    0xae, 0x83, 0xc0, 0xdd, 0xa8, 0xbf, 0xaf, 0xb3, 0x1b, 0x26, 0x9e, 0xf1,
    0xc3, 0xa5, 0xb8, 0xac, 0xbc, 0x81, 0x9c, 0xa7, 0xe6, 0xeb, 0x5b, 0x1e,
    0x36, 0x6b, 0x0a, 0xdc, 0x9e, 0xdc, 0xff, 0xff, 0x04, 0x00, 0x00, 0x00,
    0x30, 0x00, 0x00, 0x00, 0xc1, 0xfd, 0xff, 0xff, 0xff, 0x0f, 0x00, 0x00,
    0x8e, 0x0a, 0x00, 0x00, 0x74, 0x03, 0x00, 0x00, 0xb7, 0xfe, 0xff, 0xff,
    0xb5, 0x01, 0x00, 0x00, 0x90, 0x00, 0x00, 0x00, 0x60, 0x07, 0x00, 0x00,
    0x68, 0xff, 0xff, 0xff, 0x43, 0x05, 0x00, 0x00, 0xfc, 0x13, 0x00, 0x00,
    0xd0, 0x0a, 0x00, 0x00, 0xda, 0xdc, 0xff, 0xff, 0x04, 0x00, 0x00, 0x00,
    0x60, 0x1e, 0x00, 0x00, 0x0f, 0xf4, 0xe6, 0xf2, 0xed, 0xd2, 0x00, 0x1f,
    0xff, 0x26, 0x22, 0xc2, 0xfb, 0x0c, 0xe9, 0x01, 0xc6, 0x73, 0xec, 0x1f,
    0x00, 0x7f, 0x16, 0x9f, 0xc9, 0xd5, 0x19, 0xcd, 0xb1, 0x19, 0x13, 0xc5,
    0xc3, 0x01, 0xfd, 0x06, 0xb8, 0x3a, 0x1a, 0xb8, 0x08, 0xbb, 0x0a, 0x1d,
    0x40, 0xe0, 0xf5, 0x63, 0xee, 0x78, 0x19, 0x18, 0x3d, 0x2c, 0xc1, 0xbe,
    0x11, 0xfa, 0x05, 0x1b, 0x4b, 0x06, 0x6d, 0x32, 0xef, 0x12, 0xce, 0xbe,
    0x37, 0xb8, 0xff, 0x24, 0xfa, 0xf5, 0xfa, 0x19, 0x1e, 0xf3, 0x29, 0x20,
    0xc3, 0x12, 0xf1, 0xfc, 0x01, 0xe8, 0xd4, 0x20, 0x38, 0x1a, 0x12, 0xef,
    0x0c, 0xe4, 0x2d, 0xca, 0xfe, 0xd3, 0xfa, 0x29, 0xfe, 0x04, 0xfb, 0xdb,
    0x20, 0x88, 0xf2, 0x2a, 0x3f, 0x20, 0x01, 0x13, 0x18, 0x15, 0xd5, 0x0f,
    0xef, 0x18, 0x0b, 0xd8, 0xe2, 0xf7, 0x25, 0x16, 0xed, 0x25, 0xff, 0x07,
    0xfb, 0xfa, 0x27, 0x22, 0xae, 0xda, 0x28, 0x12, 0xff, 0x2f, 0x11, 0xf2,
    0xee, 0xff, 0x26, 0x45, 0xee, 0x41, 0xd1, 0xd9, 0xfe, 0xe8, 0xf2, 0x32,
    0x0d, 0xd9, 0xf3, 0xf2, 0x0b, 0x16, 0xf9, 0xf7, 0xcc, 0xe0, 0x23, 0xef,
    0x08, 0x12, 0xf9, 0xf8, 0xf4, 0xd0, 0xf7, 0x4c, 0x23, 0xdf, 0x46, 0xac,
    0xe9, 0xe2, 0x07, 0xe6, 0x16, 0x0d, 0x0d, 0xdb, 0xf7, 0xd1, 0xff, 0x35,
    0xf3, 0xdc, 0x1a, 0xce, 0x22, 0xfd, 0x34, 0x06, 0xc9, 0x81, 0xf7, 0xea,
    0x05, 0x1a, 0xe1, 0x19, 0x0d, 0xee, 0xf3, 0xf4, 0x17, 0xdd, 0x00, 0xde,
    0x0e, 0x49, 0x01, 0xde, 0xd1, 0xbd, 0x26, 0xff, 0xd2, 0x09, 0x16, 0xd6,
    0x39, 0x16, 0xc8, 0x40, 0x35, 0x02, 0xfe, 0xb5, 0x14, 0x03, 0xfe, 0x3a,
    0xf0, 0xf6, 0x03, 0x09, 0x6e, 0xfe, 0x9d, 0xca, 0x0c, 0xd3, 0xf6, 0xcb,
    0xb3, 0xfc, 0x1a, 0x8b, 0xe1, 0xee, 0x13, 0x2c, 0xd7, 0x0c, 0x0c, 0xe9,
    0xec, 0xfc, 0xc2, 0x3e, 0xe9, 0x0e, 0x09, 0x32, 0xd8, 0x12, 0x19, 0x21,
    0x17, 0x11, 0x1e, 0xf2, 0xe1, 0x26, 0xee, 0xde, 0x06, 0xf7, 0x1d, 0xee,
    0x09, 0x00, 0x13, 0xb3, 0xd0, 0xe5, 0x04, 0x1d, 0xf3, 0xf4, 0xf9, 0xcd,
    0xd4, 0x17, 0xf5, 0x66, 0x9d, 0x32, 0xea, 0xf9, 0x3f, 0x72, 0xf6, 0x25,
    0xf0, 0x10, 0x41, 0xb4, 0x0b, 0x41, 0x4e, 0x0d, 0x04, 0x12, 0xf3, 0x7f,
    0x4d, 0xbf, 0x0b, 0x29, 0x8b, 0x19, 0xdc, 0xe2, 0x18, 0x81, 0x0e, 0xf7,
    0x1b, 0xe9, 0xf8, 0x15, 0xe8, 0xfb, 0x06, 0xff, 0x20, 0x4a, 0x1b, 0x19,
    0x0f, 0x09, 0x1a, 0x10, 0x08, 0x14, 0x2f, 0x3e, 0xea, 0xec, 0xfb, 0xe5,
    0x15, 0xf9, 0x0b, 0x15, 0xd7, 0xd4, 0xf1, 0xb1, 0x26, 0xee, 0x03, 0x14,
    0x01, 0x2a, 0x26, 0x04, 0x12, 0xf8, 0xf9, 0xac, 0x0a, 0x19, 0xe0, 0x03,
    0xf0, 0x15, 0x1d, 0x08, 0x06, 0x23, 0xed, 0x0c, 0xf1, 0x19, 0xca, 0xf8,
    0xed, 0xd4, 0x12, 0xf5, 0x0f, 0xf1, 0xd7, 0xf8, 0xeb, 0x07, 0x3a, 0x08,
    0xe1, 0x13, 0x19, 0xfa, 0x0e, 0xc8, 0xdd, 0xe4, 0xd3, 0xf3, 0x3a, 0x2f,
    0x08, 0x12, 0x3d, 0xb8, 0xc7, 0x15, 0xf2, 0xef, 0xe5, 0x06, 0xe8, 0x07,
    0xf7, 0xe2, 0x12, 0xef, 0xc8, 0x21, 0x1e, 0xe7, 0xda, 0xdd, 0xf6, 0x0a,
    0x3e, 0x2e, 0x0f, 0x4b, 0xff, 0x41, 0x18, 0x09, 0xe3, 0x03, 0xc0, 0x15,
    0x20, 0x5d, 0x15, 0xeb, 0x23, 0xe4, 0x06, 0xf0, 0xc2, 0x29, 0xde, 0xf0,
    0xd6, 0x33, 0x4e, 0xf4, 0xe4, 0x27, 0x37, 0xec, 0x1d, 0xdf, 0x0a, 0x0c,
    0x00, 0xca, 0xf5, 0xda, 0x07, 0x68, 0x29, 0x29, 0x64, 0xee, 0xd8, 0xd6,
    0x12, 0xd3, 0xf1, 0xd3, 0xbc, 0x1d, 0x7f, 0x60, 0xe7, 0x11, 0xfd, 0xd7,
    0x45, 0x9b, 0x1f, 0x39, 0x35, 0xd8, 0xa5, 0x0a, 0xe7, 0xff, 0x3c, 0x0a,
    0xb3, 0x02, 0x00, 0x99, 0x11, 0xe4, 0xb0, 0x08, 0x0a, 0x21, 0x05, 0x10,
    0xe0, 0xe5, 0xfe, 0xa6, 0xe3, 0xae, 0xe6, 0xec, 0xeb, 0xeb, 0x16, 0xf2,
    0xce, 0xc6, 0xe5, 0x12, 0xd4, 0x07, 0x35, 0xe3, 0xe9, 0x4a, 0x0a, 0x10,
    0x2d, 0xf6, 0xff, 0x2f, 0xf6, 0x1a, 0x39, 0x01, 0x1e, 0x81, 0x04, 0xee,
    0x1e, 0xbc, 0x01, 0x22, 0x1d, 0x02, 0x13, 0x2d, 0xff, 0xa6, 0x1b, 0x14,
    0x0c, 0x13, 0x02, 0x09, 0xc0, 0xeb, 0xfe, 0xfa, 0xd8, 0xfb, 0xc5, 0x27,
    0xac, 0xbe, 0xd0, 0x35, 0x19, 0x11, 0x02, 0xda, 0xf3, 0xdb, 0x0f, 0x2d,
    0xe2, 0x0a, 0x0d, 0xeb, 0xc4, 0xc5, 0x37, 0x16, 0x01, 0x0b, 0x76, 0xd2,
    0x3d, 0x12, 0x12, 0x39, 0x2e, 0x20, 0x0a, 0x04, 0xf1, 0x13, 0xf0, 0x0e,
    0x86, 0xe1, 0x11, 0xcd, 0x24, 0x13, 0x14, 0xf6, 0x00, 0xa4, 0xfb, 0xfd,
    0xe9, 0x2e, 0x0e, 0xf0, 0x10, 0x05, 0xd7, 0x15, 0x0a, 0x0a, 0x1c, 0xfc,
    0x3f, 0x53, 0xf5, 0xa2, 0x55, 0xe6, 0xc7, 0x05, 0x17, 0x10, 0x01, 0x11,
    0xcb, 0xe9, 0x35, 0xa5, 0xfb, 0xeb, 0xe1, 0x21, 0xfd, 0xff, 0x1b, 0xd3,
    0xf6, 0x11, 0x10, 0xfe, 0x81, 0x06, 0x30, 0x08, 0x09, 0x3d, 0xea, 0x0a,
    0x39, 0xfa, 0xde, 0x65, 0x53, 0x18, 0xe1, 0x21, 0x02, 0xf5, 0x1d, 0x10,
    0x16, 0x2b, 0x29, 0xcd, 0x1b, 0xf3, 0x06, 0x0b, 0xea, 0x13, 0x0d, 0xe9,
    0xd5, 0x07, 0x13, 0x33, 0x1c, 0xfe, 0xeb, 0xe7, 0xfb, 0x07, 0x09, 0xef,
    0xc5, 0x04, 0xed, 0x15, 0xf2, 0x17, 0x0a, 0xf4, 0x10, 0x00, 0x11, 0x0b,
    0x03, 0xf9, 0xf0, 0x03, 0xe6, 0xfe, 0x0b, 0xf8, 0xea, 0xf3, 0xfc, 0x33,
    0x11, 0x00, 0xf4, 0xed, 0xe2, 0xfd, 0xe3, 0xe4, 0x02, 0xdc, 0x09, 0xf4,
    0xed, 0x09, 0x0a, 0x02, 0xfb, 0xf1, 0xf8, 0xe6, 0xf7, 0xed, 0x25, 0x1f,
    0xd7, 0xf4, 0xe1, 0xb2, 0xc9, 0xfe, 0x3d, 0xda, 0x15, 0xfc, 0xfa, 0x02,
    0x36, 0xfc, 0x20, 0xea, 0x8b, 0xf0, 0x1b, 0x11, 0xfb, 0xb0, 0x20, 0xdf,
    0x47, 0xce, 0xda, 0xe4, 0x89, 0xf8, 0x10, 0xd4, 0xf4, 0xe9, 0xe8, 0xf5,
    0x03, 0xe1, 0x15, 0x56, 0xe7, 0xb6, 0x11, 0xcb, 0x52, 0x37, 0x19, 0xfe,
    0xea, 0x27, 0x2e, 0x31, 0x7f, 0x06, 0x02, 0x09, 0xfd, 0x1b, 0x18, 0x20,
    0xe6, 0xec, 0x01, 0x33, 0xab, 0x28, 0xc7, 0x01, 0x04, 0x24, 0xb6, 0xe5,
    0xe0, 0xf7, 0xdf, 0x4e, 0xf2, 0x2e, 0xf4, 0x08, 0x06, 0xe4, 0x05, 0xe1,
    0xb9, 0x52, 0x30, 0x02, 0x46, 0x0b, 0x0f, 0x3e, 0xe0, 0x00, 0xf0, 0xfe,
    0xe3, 0x0f, 0x1b, 0xd2, 0xfc, 0xf5, 0xda, 0x09, 0x34, 0xe8, 0xcd, 0xe3,
    0xf1, 0xe7, 0x2d, 0x03, 0xfe, 0x24, 0xc6, 0xf9, 0x1a, 0xe2, 0x0c, 0xe8,
    0xe7, 0xe1, 0xf4, 0x43, 0x47, 0x5a, 0xed, 0x45, 0x15, 0xf3, 0xfc, 0x0e,
    0xf2, 0xfc, 0xea, 0x10, 0x2a, 0xd2, 0x19, 0xfd, 0x00, 0x18, 0x32, 0x34,
    0xfe, 0x13, 0x3c, 0xa2, 0x26, 0x0b, 0x2c, 0x9c, 0xfe, 0x1e, 0x0b, 0x32,
    0x08, 0x1a, 0xfd, 0xe2, 0x86, 0x26, 0xd2, 0x81, 0xe3, 0x34, 0xd9, 0x43,
    0xe5, 0x39, 0x24, 0xd4, 0xdd, 0xd9, 0xfb, 0x14, 0xda, 0x05, 0x10, 0xea,
    0x02, 0xf3, 0x1a, 0xfc, 0xeb, 0xdd, 0x04, 0x09, 0xc5, 0xdb, 0x04, 0xf0,
    0x0f, 0x06, 0x0d, 0x22, 0xb5, 0xe6, 0xe1, 0xfe, 0xd4, 0xd5, 0x1d, 0xb6,
    0xfb, 0x0d, 0x04, 0xef, 0x03, 0xed, 0x08, 0xbf, 0xff, 0x06, 0x15, 0x29,
    0x01, 0x0d, 0x29, 0xe6, 0x01, 0x2a, 0xd2, 0xfa, 0xf0, 0x54, 0x0a, 0x09,
    0x0f, 0x2f, 0x0d, 0x05, 0x15, 0x00, 0xaf, 0x92, 0x0f, 0x26, 0xe0, 0x0c,
    0xd2, 0xfe, 0xce, 0xeb, 0x10, 0xe3, 0xca, 0xf9, 0x02, 0xf7, 0x13, 0x0d,
    0x20, 0x44, 0x19, 0xfc, 0x0a, 0x47, 0x20, 0x1b, 0x22, 0x03, 0xea, 0xce,
    0x31, 0x22, 0x12, 0x22, 0x0d, 0x3c, 0x0c, 0x05, 0xe4, 0x2e, 0x8b, 0x07,
    0xfc, 0xe1, 0x20, 0xe8, 0xfa, 0xfc, 0x0f, 0x20, 0xfc, 0xc6, 0x43, 0x04,
    0xf4, 0x14, 0x25, 0xe6, 0xf4, 0xd2, 0x1c, 0x3a, 0x39, 0xf0, 0xfa, 0xd3,
    0xf3, 0xbb, 0xfb, 0x06, 0xcc, 0xf5, 0x30, 0x33, 0xea, 0xc9, 0x1c, 0xc6,
    0x09, 0x81, 0xcf, 0x35, 0x1a, 0xfc, 0x1c, 0x08, 0xfd, 0x06, 0x1b, 0x00,
    0xf2, 0x10, 0x23, 0xe0, 0x25, 0xf3, 0x24, 0x26, 0xec, 0xf4, 0x01, 0xf4,
    0xe3, 0x18, 0x24, 0xfe, 0x0b, 0x00, 0x07, 0xfa, 0xfd, 0x0c, 0xf4, 0xfc,
    0x1c, 0xfa, 0x1f, 0x1e, 0x00, 0x05, 0x0e, 0x34, 0xf6, 0xef, 0x15, 0xe9,
    0x12, 0x01, 0xea, 0xf8, 0xd4, 0x12, 0x01, 0x32, 0x0d, 0xee, 0x02, 0x23,
    0xd5, 0xf7, 0x0d, 0x15, 0x0a, 0xfd, 0xcd, 0xe3, 0xf8, 0xe6, 0x0c, 0x2b,
    0xd3, 0x04, 0xfc, 0xec, 0x81, 0x16, 0xe3, 0xea, 0x12, 0x0b, 0xb3, 0xfb,
    0x24, 0xf5, 0xe2, 0x32, 0xd9, 0x00, 0xcb, 0xc5, 0xe6, 0x12, 0xeb, 0xfe,
    0xe3, 0xff, 0xf2, 0x21, 0xec, 0xf1, 0xfa, 0xf0, 0x09, 0xe9, 0x24, 0x12,
    0xe4, 0xe4, 0x0f, 0xe1, 0x38, 0xf9, 0xfa, 0x11, 0xfb, 0x27, 0x1e, 0x1f,
    0xea, 0x14, 0x10, 0x81, 0xdf, 0x00, 0x2c, 0xff, 0x17, 0x13, 0x11, 0xe7,
    0xfd, 0x0d, 0x23, 0x14, 0x8e, 0x19, 0xf9, 0xd8, 0xe6, 0x05, 0x24, 0x03,
    0x31, 0xde, 0xcd, 0x59, 0xb0, 0x00, 0x12, 0x12, 0xea, 0xdf, 0xff, 0x03,
    0xf2, 0xd4, 0xf2, 0x2f, 0xfa, 0xff, 0x17, 0xfa, 0x19, 0x00, 0xf4, 0xe5,
    0xda, 0x14, 0xf8, 0x25, 0x73, 0x04, 0xeb, 0xec, 0xfb, 0x08, 0xcf, 0x16,
    0xcc, 0x15, 0xfb, 0xe9, 0xc3, 0x12, 0xf4, 0xfd, 0xff, 0x11, 0xbc, 0xe8,
    0xdf, 0x02, 0x10, 0x0f, 0x07, 0x29, 0xf5, 0x1b, 0x26, 0xd4, 0xe7, 0xdc,
    0x12, 0x13, 0xf6, 0xd5, 0xdc, 0x02, 0x10, 0x22, 0x0d, 0xf5, 0x21, 0xd8,
    0x17, 0xd9, 0x1f, 0xe1, 0x81, 0x13, 0x22, 0xbd, 0xd5, 0x14, 0x09, 0xf6,
    0x49, 0xf1, 0xdd, 0x58, 0xd9, 0x05, 0xfb, 0x10, 0x19, 0x9d, 0xf2, 0xea,
    0x34, 0xd7, 0xfd, 0x0f, 0x1e, 0xdd, 0xe5, 0x26, 0xf0, 0x9e, 0xfe, 0xe9,
    0x93, 0xee, 0x1c, 0x9b, 0x8e, 0x10, 0xce, 0x9a, 0x12, 0x31, 0xbf, 0x0e,
    0xfa, 0x01, 0x10, 0x35, 0xf9, 0x27, 0xd4, 0xcc, 0x28, 0xdd, 0xf3, 0x1e,
    0x14, 0xf0, 0xf7, 0xf1, 0x1c, 0x3c, 0x1f, 0x37, 0x12, 0xf8, 0x1b, 0x19,
    0x21, 0xdd, 0xfb, 0xa0, 0x63, 0xf0, 0x23, 0x46, 0xf0, 0x08, 0x1a, 0x28,
    0x08, 0x19, 0x38, 0xd3, 0x12, 0x0e, 0x5c, 0xd8, 0x01, 0xdf, 0xfe, 0x0e,
    0xfa, 0x0f, 0x0e, 0x36, 0xc8, 0xe2, 0xed, 0xef, 0xe9, 0x2a, 0x1c, 0xdb,
    0xe8, 0x3d, 0x17, 0x12, 0x65, 0xfc, 0xd0, 0x2f, 0x14, 0x2b, 0x2c, 0xef,
    0xb9, 0xf9, 0xdc, 0xee, 0x05, 0x06, 0xae, 0x0b, 0xd7, 0x86, 0xde, 0x92,
    0x9e, 0x35, 0x9c, 0x7e, 0x34, 0x16, 0xff, 0x0a, 0x14, 0x37, 0xf6, 0xfd,
    0xe2, 0x2b, 0x5b, 0x0b, 0x0e, 0x0a, 0x05, 0x6a, 0xd0, 0x06, 0xf4, 0xed,
    0xbb, 0xa0, 0xd4, 0x89, 0xec, 0x3b, 0xf2, 0x2d, 0xa0, 0x8a, 0x33, 0x73,
    0xc6, 0xd2, 0xfc, 0x8e, 0xb0, 0xf6, 0xf8, 0xdc, 0x19, 0xd7, 0x6a, 0xca,
    0x2d, 0x18, 0x25, 0xaf, 0x2c, 0xe3, 0x7f, 0xb7, 0xea, 0x20, 0xef, 0x19,
    0xca, 0xf1, 0xf9, 0x3f, 0xd5, 0x20, 0x20, 0x9f, 0x18, 0x02, 0xdd, 0x67,
    0xff, 0x2b, 0x06, 0xff, 0xb3, 0x06, 0x1b, 0xcf, 0x1a, 0xed, 0x04, 0x4e,
    0x64, 0x53, 0x02, 0xe6, 0x9d, 0x1b, 0x34, 0xce, 0xf2, 0x08, 0x10, 0x0e,
    0xfd, 0xf7, 0xf8, 0x27, 0xf0, 0x36, 0xf7, 0xf1, 0x03, 0xa6, 0x15, 0xe5,
    0x2c, 0x06, 0xc6, 0xf9, 0x0c, 0x3d, 0xd4, 0xfb, 0xf1, 0xd4, 0xee, 0x26,
    0xf0, 0xf5, 0xb5, 0x09, 0xfb, 0xfd, 0x3a, 0xe9, 0x28, 0x22, 0x15, 0x05,
    0xe1, 0x1f, 0x3e, 0xe0, 0x01, 0x14, 0x13, 0x10, 0x5e, 0x19, 0xd9, 0xea,
    0x20, 0x2c, 0xf2, 0x08, 0x17, 0x2e, 0x3a, 0xf9, 0xde, 0x33, 0xa4, 0x25,
    0x0e, 0xfd, 0x34, 0x20, 0x26, 0xe7, 0x04, 0x05, 0xe3, 0x02, 0x0e, 0x1d,
    0xc4, 0xff, 0x2d, 0x81, 0x12, 0xc8, 0xf8, 0x2c, 0x01, 0xb7, 0x2c, 0xdd,
    0x09, 0xf8, 0x1f, 0x0d, 0xb3, 0xbb, 0x17, 0xfa, 0xbb, 0x13, 0x0b, 0xaa,
    0xee, 0xd4, 0x03, 0x0a, 0xec, 0xf3, 0x20, 0xf4, 0x2a, 0xfb, 0x06, 0x14,
    0x2c, 0x04, 0xf6, 0xfa, 0x13, 0xe1, 0x3e, 0x0d, 0x0f, 0xcc, 0x06, 0x24,
    0xfb, 0xca, 0x24, 0x0b, 0xee, 0xfa, 0x26, 0x11, 0x0d, 0xba, 0x26, 0xf1,
    0x2a, 0xee, 0xf7, 0xf5, 0xfd, 0x0f, 0xf3, 0x10, 0xe6, 0x09, 0xea, 0xe3,
    0xf2, 0x04, 0xcf, 0xf9, 0xfb, 0xcb, 0x04, 0x11, 0xe7, 0xec, 0x1c, 0xfc,
    0xdc, 0x08, 0x21, 0x08, 0x32, 0xea, 0xca, 0xfc, 0xf6, 0xe3, 0x1a, 0x1b,
    0xdc, 0x04, 0xfb, 0xf7, 0x81, 0x34, 0xeb, 0xd4, 0x0a, 0x16, 0xb3, 0xeb,
    0x0c, 0xfb, 0xdf, 0x59, 0xe1, 0x2d, 0xf6, 0xdf, 0xe4, 0x2b, 0xe3, 0x0d,
    0xe8, 0x20, 0x2d, 0x0f, 0x06, 0x0f, 0xee, 0xea, 0x21, 0x11, 0x04, 0x15,
    0xd0, 0x16, 0x0b, 0xcb, 0xf4, 0xda, 0xe0, 0x19, 0xeb, 0xec, 0x05, 0xdd,
    0xe3, 0xf9, 0x27, 0xd7, 0x15, 0x08, 0xc5, 0x01, 0xfd, 0xe7, 0x0e, 0xd0,
    0xdb, 0x21, 0xf4, 0x11, 0x4e, 0x29, 0xea, 0x0f, 0x0a, 0x0d, 0xcd, 0xea,
    0xe9, 0xf7, 0x05, 0xe6, 0x29, 0xe8, 0x26, 0x28, 0x15, 0x0a, 0x14, 0xf8,
    0x12, 0x12, 0x1c, 0xea, 0xe5, 0x19, 0x29, 0xec, 0x0a, 0x17, 0x0c, 0x39,
    0xed, 0x21, 0x1c, 0x10, 0x96, 0x2a, 0xeb, 0x81, 0xe2, 0x0d, 0xc9, 0x52,
    0xd7, 0xfd, 0x20, 0xe8, 0xbb, 0xf5, 0xdf, 0x0e, 0x05, 0xea, 0x02, 0xe5,
    0x18, 0xf5, 0xd9, 0x36, 0xda, 0x03, 0xd2, 0xf3, 0xf6, 0x42, 0x12, 0x3c,
    0x10, 0xf6, 0x0b, 0xff, 0xc6, 0x0c, 0xfb, 0x05, 0xe8, 0xfe, 0x1e, 0x20,
    0x0c, 0xbd, 0x04, 0x1d, 0xee, 0xf0, 0x18, 0x09, 0xe8, 0x08, 0x09, 0x1b,
    0x10, 0xe4, 0x15, 0xf7, 0x1f, 0xea, 0x2d, 0x25, 0xbb, 0xfa, 0xf5, 0x2a,
    0xe2, 0x3b, 0x44, 0xcb, 0xf2, 0xf1, 0x11, 0x27, 0xf4, 0x3e, 0xfd, 0x12,
    0x1b, 0x05, 0x0e, 0x00, 0xbb, 0xff, 0xff, 0x25, 0xe4, 0xf3, 0xf6, 0xd2,
    0xfc, 0xc3, 0xc3, 0xf1, 0xbf, 0xf3, 0xeb, 0x1d, 0x20, 0x15, 0xfd, 0x1b,
    0xdb, 0x1a, 0x1d, 0xe5, 0x19, 0xe0, 0xd1, 0xe8, 0x00, 0xe1, 0x35, 0x4e,
    0xdf, 0xd8, 0x17, 0xf3, 0x81, 0x36, 0xe3, 0x02, 0x20, 0xee, 0xbf, 0xda,
    0x27, 0xfa, 0xc2, 0x55, 0xe8, 0x2b, 0xf5, 0xe7, 0xd4, 0xed, 0xd2, 0xfd,
    0xe9, 0x19, 0xf1, 0x48, 0x30, 0x19, 0xf2, 0x05, 0x10, 0x17, 0x26, 0x3c,
    0xe1, 0x19, 0x04, 0xf3, 0x39, 0xfb, 0xda, 0xf9, 0x0c, 0x01, 0x0f, 0x12,
    0xd6, 0x24, 0x41, 0xd9, 0xdd, 0x0d, 0x07, 0x1e, 0x1f, 0xa5, 0x34, 0xd7,
    0x06, 0x89, 0xec, 0x29, 0xdd, 0x0f, 0x2d, 0x11, 0x14, 0x81, 0xff, 0xfc,
    0x2c, 0xee, 0xa8, 0x4b, 0x3d, 0x25, 0x3c, 0xdb, 0x26, 0xf4, 0x06, 0xf9,
    0x2a, 0x25, 0x68, 0xe4, 0x04, 0x0d, 0x05, 0xf8, 0x12, 0x28, 0xf2, 0xe7,
    0xf6, 0xfc, 0xf1, 0x4a, 0x41, 0x03, 0xca, 0x17, 0xf5, 0x29, 0xb1, 0x0b,
    0x8a, 0x27, 0xf9, 0xc5, 0xc6, 0x01, 0xce, 0xdb, 0xe8, 0xeb, 0x18, 0x11,
    0x18, 0x28, 0xfb, 0xe9, 0x0a, 0xe4, 0xf6, 0xfe, 0xd3, 0xfc, 0x1b, 0xe7,
    0x08, 0x15, 0xf7, 0xee, 0xb9, 0xfa, 0xeb, 0xda, 0xef, 0x0f, 0xf2, 0x10,
    0xea, 0xe9, 0x37, 0xd9, 0xfd, 0x0f, 0xfa, 0xe0, 0x0a, 0x1c, 0xf2, 0x19,
    0xf6, 0xfe, 0xf7, 0xf7, 0x05, 0x18, 0x23, 0x0a, 0x02, 0xf2, 0x05, 0xfd,
    0x04, 0xed, 0x12, 0x17, 0xe3, 0xf2, 0xfd, 0x11, 0x01, 0xf6, 0x00, 0x25,
    0x0e, 0xfa, 0x02, 0x06, 0xfc, 0x13, 0xf9, 0xf5, 0xf9, 0x11, 0xf8, 0xfd,
    0xf8, 0xf1, 0x0f, 0xfb, 0x08, 0xf6, 0xff, 0xf4, 0xff, 0xcc, 0x0b, 0xf5,
    0x01, 0xf1, 0x0f, 0x14, 0x07, 0xf7, 0xff, 0x1b, 0x0a, 0xef, 0x2a, 0xf9,
    0xf5, 0x28, 0x03, 0x0a, 0x09, 0x1b, 0x0f, 0x10, 0x0d, 0xf8, 0xff, 0x15,
    0xfd, 0xff, 0x0f, 0xb2, 0x1c, 0xfd, 0x19, 0x0b, 0xea, 0x81, 0xf4, 0xd3,
    0x03, 0x03, 0xd7, 0x25, 0x0f, 0xfe, 0xe9, 0xfd, 0x02, 0xe6, 0x12, 0xd2,
    0xf5, 0x2d, 0xfb, 0x0b, 0x09, 0xdd, 0xd5, 0x36, 0x63, 0x83, 0x69, 0x29,
    0x14, 0xc4, 0x9b, 0x22, 0x96, 0xaf, 0xc8, 0x92, 0x9b, 0xb8, 0x9e, 0xb7,
    0x50, 0x91, 0xbc, 0xbe, 0x60, 0x5b, 0x3d, 0xcb, 0xa9, 0xf7, 0xaa, 0xc6,
    0x9c, 0x00, 0x45, 0xf0, 0x89, 0xd0, 0x8f, 0xc8, 0xa4, 0x44, 0x33, 0x9e,
    0x5e, 0x50, 0xf3, 0x04, 0x32, 0xbe, 0x28, 0xbe, 0xa9, 0x09, 0x17, 0x47,
    0x3f, 0x23, 0xc9, 0xf6, 0xa4, 0x81, 0x29, 0x9d, 0x66, 0xb5, 0xea, 0xf5,
    0x4a, 0x1e, 0x25, 0xf3, 0x2b, 0x6b, 0x99, 0x11, 0xf0, 0x21, 0x0e, 0x85,
    0x10, 0x94, 0x60, 0x84, 0x00, 0x0e, 0xe0, 0x05, 0x87, 0x45, 0xcf, 0xc1,
    0x43, 0x63, 0xc5, 0x2d, 0xd1, 0x07, 0xd3, 0x3a, 0x19, 0xe2, 0x15, 0xc9,
    0xa4, 0x2e, 0xfa, 0x38, 0x3e, 0xef, 0x08, 0xc8, 0x01, 0x4d, 0xe7, 0x12,
    0xf3, 0x28, 0x2f, 0x34, 0xeb, 0xf8, 0xef, 0xf4, 0xf6, 0xd6, 0x04, 0xcc,
    0xd1, 0xe8, 0xda, 0x1e, 0x34, 0xfe, 0xaa, 0xbf, 0x26, 0x1f, 0xaf, 0x28,
    0xd1, 0x16, 0xdf, 0xe1, 0x7f, 0x28, 0x23, 0x3b, 0xe4, 0x02, 0x25, 0xe4,
    0xfa, 0x1f, 0x1e, 0xfd, 0x0b, 0x4d, 0x48, 0x6c, 0xde, 0xa0, 0x07, 0xd1,
    0xfe, 0xfa, 0xc2, 0x08, 0xe1, 0x18, 0xee, 0xe2, 0x00, 0x2c, 0xf3, 0xfd,
    0xf6, 0x21, 0x3f, 0xd6, 0xf7, 0x24, 0x57, 0x0c, 0xe3, 0xc2, 0x0f, 0xf5,
    0xf2, 0xf5, 0xfe, 0xa0, 0xb8, 0xe9, 0xe8, 0x11, 0x24, 0x01, 0xf2, 0x1c,
    0x1f, 0xdc, 0xb2, 0x0b, 0xb9, 0xd7, 0xe4, 0xcf, 0xea, 0xf3, 0x3d, 0x19,
    0x3d, 0xd0, 0x0b, 0x0a, 0x81, 0xdb, 0xbc, 0x9a, 0xf4, 0xf2, 0xb2, 0x4e,
    0xda, 0xee, 0x28, 0xe7, 0xa3, 0xe6, 0xe7, 0xd7, 0x02, 0x1d, 0x18, 0xff,
    0xfd, 0x0a, 0xe3, 0xe9, 0x98, 0xca, 0xcc, 0xbe, 0x0c, 0x24, 0xf6, 0xe7,
    0xe5, 0xca, 0xfe, 0xf3, 0x57, 0x04, 0xf9, 0xcd, 0xfb, 0x1b, 0x1f, 0xff,
    0x42, 0x58, 0x77, 0xb1, 0x04, 0x3e, 0x2a, 0x48, 0x3d, 0xbd, 0xff, 0x98,
    0xe1, 0x27, 0x0f, 0x18, 0x47, 0x15, 0xe9, 0xf9, 0xe3, 0xf0, 0xbf, 0x37,
    0xec, 0xf9, 0x12, 0xca, 0xec, 0x0e, 0x24, 0x11, 0x16, 0xab, 0x1c, 0xe8,
    0x44, 0xe3, 0xb7, 0xe7, 0x07, 0x0f, 0x44, 0x1c, 0xfc, 0x0e, 0x03, 0x0b,
    0xd8, 0xdf, 0xbe, 0x12, 0xde, 0x05, 0x11, 0x0b, 0xf6, 0x24, 0xdd, 0x3b,
    0xbf, 0xe4, 0x39, 0x11, 0x95, 0xf7, 0x21, 0xcb, 0x10, 0x07, 0xeb, 0x28,
    0x22, 0xeb, 0xf2, 0xfb, 0x1d, 0xe3, 0x3f, 0x01, 0xe7, 0x2d, 0xf8, 0x3f,
    0x07, 0x02, 0x5c, 0xcd, 0xd1, 0xda, 0x29, 0x46, 0xf6, 0x08, 0x1f, 0xf9,
    0x22, 0xdd, 0xf4, 0xf2, 0xa7, 0x09, 0xc4, 0x06, 0xd4, 0xec, 0xd3, 0xe4,
    0xf3, 0xdd, 0xee, 0xe4, 0xd3, 0x8f, 0xe3, 0xf9, 0x06, 0xfc, 0x2e, 0x35,
    0xcb, 0x35, 0x4a, 0xf9, 0x10, 0xdc, 0xde, 0x12, 0x06, 0xeb, 0x4e, 0x20,
    0xe5, 0xeb, 0xd4, 0x0b, 0x97, 0x7f, 0x12, 0x31, 0x32, 0xf8, 0x94, 0xe1,
    0x22, 0xe6, 0xc5, 0x5e, 0x0f, 0x38, 0x00, 0x00, 0xba, 0xc6, 0x12, 0xf3,
    0x9e, 0x21, 0x1c, 0x4a, 0x6b, 0x21, 0xec, 0xef, 0x0e, 0xfe, 0x25, 0x22,
    0x9e, 0x1c, 0x16, 0xe1, 0xf5, 0x1e, 0xf2, 0xdc, 0xd5, 0x10, 0xcb, 0x40,
    0xc4, 0x0a, 0x4c, 0x0f, 0xfd, 0x42, 0xbb, 0x17, 0xd9, 0x4e, 0xe2, 0x0f,
    0xee, 0x65, 0x45, 0x2b, 0x38, 0x4e, 0xb0, 0xc0, 0xf1, 0x63, 0xa4, 0x3b,
    0xb2, 0x3e, 0x3f, 0xf1, 0x1e, 0xe4, 0xfd, 0x05, 0x1a, 0xd8, 0x41, 0x44,
    0xfd, 0xea, 0x14, 0xcc, 0x0c, 0x67, 0x2a, 0x30, 0x1f, 0xc9, 0x13, 0xd4,
    0x3f, 0x03, 0xd0, 0xdd, 0x81, 0x1f, 0x5f, 0x03, 0x27, 0xf2, 0x17, 0xce,
    0x60, 0xe3, 0xfc, 0xf0, 0x48, 0x0e, 0x19, 0x18, 0xec, 0xc2, 0x3f, 0x21,
    0xc2, 0x07, 0x31, 0xbe, 0xf9, 0xab, 0x08, 0x47, 0x39, 0xd6, 0x0f, 0xc4,
    0x0d, 0xcb, 0xde, 0x13, 0xc1, 0xd2, 0xc3, 0xf6, 0xc3, 0xf9, 0x26, 0xbb,
    0xe9, 0xc3, 0xbd, 0x11, 0x1a, 0x21, 0xbf, 0xeb, 0x4e, 0x0c, 0xc8, 0x19,
    0xc8, 0xf5, 0x7f, 0xc1, 0xec, 0x2e, 0xfc, 0x25, 0x0a, 0x5d, 0xec, 0xfa,
    0xfb, 0x03, 0x31, 0x30, 0xdb, 0x18, 0xf4, 0x54, 0x0d, 0xa5, 0xfd, 0xf8,
    0xe8, 0xd5, 0x03, 0x02, 0x25, 0x06, 0xdb, 0xb6, 0x10, 0x19, 0x24, 0x39,
    0x1f, 0x32, 0x42, 0xa9, 0x1f, 0x26, 0xf0, 0xcc, 0xf4, 0xd0, 0x30, 0x11,
    0xf7, 0x07, 0xb8, 0x53, 0xee, 0x11, 0xbb, 0x1c, 0x1c, 0xd3, 0xeb, 0xc8,
    0xbc, 0x13, 0xdd, 0xba, 0x1b, 0xdd, 0x0f, 0x07, 0xe8, 0xc4, 0x41, 0x29,
    0x16, 0x0b, 0x49, 0x9f, 0x1f, 0x02, 0x26, 0x00, 0xa1, 0x86, 0x00, 0xef,
    0x23, 0x1b, 0xd1, 0x4a, 0xca, 0xfd, 0xd0, 0xd0, 0xcf, 0xd9, 0x15, 0x84,
    0xcd, 0x38, 0xe6, 0xdc, 0x81, 0xf7, 0x38, 0xe3, 0xcf, 0x01, 0x0b, 0x08,
    0x2a, 0x05, 0xde, 0x36, 0x1e, 0x0d, 0x21, 0xdf, 0xf4, 0xfc, 0xd0, 0x39,
    0x06, 0x2a, 0xf2, 0xd9, 0x3f, 0xf3, 0xeb, 0xff, 0xdc, 0x07, 0x0c, 0xfa,
    0xe9, 0xf6, 0xf7, 0x92, 0xb4, 0x06, 0xfc, 0x2c, 0xeb, 0xfa, 0x09, 0xe9,
    0xec, 0xe9, 0xf6, 0x45, 0xcf, 0x16, 0x11, 0x1d, 0x14, 0xfe, 0xe3, 0xdf,
    0x1e, 0x3b, 0x37, 0xe3, 0xd6, 0x11, 0x42, 0xe9, 0x01, 0x06, 0x1b, 0x0a,
    0x3e, 0xf8, 0x29, 0x26, 0xfd, 0x0c, 0xfd, 0x03, 0x08, 0x04, 0xf3, 0xdf,
    0xcf, 0xf9, 0xe1, 0x23, 0xe0, 0x0e, 0xe1, 0x02, 0x59, 0x09, 0xe4, 0xed,
    0xc5, 0xf8, 0x02, 0xf9, 0x48, 0xf5, 0x1a, 0xfa, 0xf1, 0x03, 0x1b, 0x34,
    0xfe, 0xdf, 0xff, 0xed, 0x06, 0x0f, 0x0e, 0xe0, 0x17, 0x27, 0xf9, 0x14,
    0xfd, 0x01, 0xf5, 0x05, 0x00, 0x07, 0x21, 0x16, 0xfd, 0xf9, 0xfe, 0x12,
    0xf6, 0xe2, 0x1f, 0x11, 0xe8, 0xf3, 0x00, 0x04, 0x09, 0xf2, 0x07, 0x23,
    0x1c, 0xfd, 0x0a, 0x0a, 0xf8, 0x03, 0xef, 0x07, 0xea, 0x06, 0xf5, 0xfe,
    0xf8, 0xf9, 0x0c, 0x01, 0x09, 0x00, 0x12, 0xfe, 0xfd, 0xce, 0x0f, 0xfa,
    0xf8, 0xfb, 0xf9, 0x0a, 0x05, 0xee, 0xf3, 0x11, 0x0e, 0xe7, 0x26, 0xed,
    0xec, 0x22, 0xfc, 0x09, 0x0f, 0x17, 0x10, 0x0b, 0x0a, 0xf1, 0xf4, 0x1f,
    0x12, 0xf3, 0x11, 0xc5, 0x08, 0x04, 0x16, 0x0e, 0xf7, 0x81, 0x01, 0xce,
    0xf4, 0x0a, 0xd1, 0x28, 0x1e, 0x07, 0xea, 0xfa, 0xec, 0xf1, 0x16, 0xd3,
    0xde, 0x31, 0x0f, 0xfb, 0x39, 0x04, 0x90, 0xc0, 0x35, 0xf0, 0xef, 0x15,
    0xc1, 0xd1, 0x0c, 0xa6, 0xee, 0xe8, 0xdf, 0x0e, 0xfd, 0x28, 0x03, 0xe2,
    0xcd, 0xf5, 0x4f, 0xe2, 0x97, 0x37, 0x2f, 0x4e, 0x15, 0x25, 0xe6, 0xf4,
    0x35, 0xe1, 0xf8, 0x7f, 0x16, 0xe5, 0x95, 0xa5, 0x05, 0x08, 0xec, 0x19,
    0x0f, 0x2d, 0x32, 0x9b, 0x16, 0x02, 0x01, 0xca, 0xfd, 0x2f, 0x27, 0x14,
    0x0d, 0xf6, 0x21, 0x0b, 0x30, 0x21, 0x00, 0x19, 0x21, 0xef, 0x0b, 0x1c,
    0xbc, 0x09, 0xc2, 0x1b, 0x05, 0xf1, 0xf0, 0x08, 0x03, 0xee, 0x3c, 0x17,
    0x1b, 0x18, 0x0b, 0xaa, 0x09, 0xe2, 0x4f, 0xe0, 0xbf, 0xc8, 0x18, 0x12,
    0x19, 0x26, 0xec, 0x36, 0xf9, 0x1a, 0xe3, 0x1f, 0xd0, 0xce, 0x08, 0xa8,
    0xd4, 0x36, 0xef, 0xfb, 0x47, 0xff, 0xdc, 0x00, 0x16, 0x3a, 0x01, 0x09,
    0xf1, 0xee, 0x19, 0xfa, 0x17, 0xfb, 0x06, 0x30, 0xe8, 0x9e, 0x0c, 0xec,
    0xce, 0xb4, 0x23, 0x1d, 0x0a, 0xef, 0xf0, 0x32, 0x37, 0xf2, 0x22, 0x03,
    0x0c, 0xce, 0x22, 0xec, 0x5d, 0x2d, 0x19, 0x13, 0xf2, 0xfa, 0xf9, 0xd2,
    0x24, 0x40, 0x10, 0xc6, 0xeb, 0xf0, 0x41, 0xd8, 0xdd, 0xcf, 0x19, 0x35,
    0xd2, 0xde, 0xde, 0x29, 0xf9, 0xcb, 0xa8, 0x9a, 0xf1, 0xe5, 0x2d, 0x3c,
    0xce, 0x6a, 0x0a, 0xb4, 0x81, 0x38, 0x21, 0xf3, 0x34, 0xfa, 0xc8, 0x04,
    0x65, 0xfa, 0xf9, 0xfb, 0xb5, 0x03, 0xf0, 0xf7, 0xb7, 0x10, 0xfa, 0xfb,
    0xe9, 0xff, 0xca, 0x48, 0x05, 0xef, 0xe1, 0x12, 0x05, 0xf4, 0x0a, 0xfc,
    0xc6, 0x20, 0x0a, 0x2d, 0x00, 0xf4, 0x18, 0xb6, 0xe4, 0x0a, 0xf3, 0x25,
    0xf4, 0x2b, 0x40, 0x0b, 0x0f, 0x38, 0xf8, 0xe9, 0xe9, 0x2a, 0xde, 0x21,
    0x10, 0x68, 0x2c, 0x0f, 0x4d, 0x5e, 0xba, 0x9e, 0xe4, 0x3f, 0xce, 0x36,
    0xe3, 0x15, 0x2e, 0xe6, 0x25, 0x2a, 0x2b, 0x41, 0x05, 0xca, 0x3b, 0x01,
    0x08, 0x11, 0x12, 0xe5, 0xf9, 0x28, 0x37, 0x68, 0x3e, 0xe6, 0xff, 0xa7,
    0x0c, 0xe9, 0xed, 0x11, 0xb4, 0x43, 0x69, 0x27, 0x02, 0xf7, 0xba, 0xfd,
    0x23, 0xbb, 0x15, 0x15, 0xae, 0xf2, 0xcb, 0x20, 0xc9, 0xf1, 0x08, 0x0e,
    0xd3, 0x1e, 0xde, 0xaa, 0xf5, 0xcf, 0xd6, 0x23, 0x14, 0x1f, 0x07, 0xbe,
    0xc5, 0xcf, 0xb9, 0xfe, 0xef, 0x9b, 0x0c, 0xf3, 0xdc, 0xeb, 0x1c, 0xc6,
    0xd2, 0x81, 0xce, 0x08, 0x9c, 0x25, 0x0d, 0x1b, 0x18, 0xa2, 0x04, 0xf1,
    0x08, 0x01, 0xf7, 0x11, 0xbb, 0xfc, 0xfd, 0xfd, 0x28, 0x03, 0x0d, 0x1c,
    0x32, 0xfb, 0xdf, 0xd2, 0xf0, 0xd2, 0x1d, 0x3b, 0xd3, 0xe5, 0x1e, 0xed,
    0xe3, 0x02, 0xf6, 0x0e, 0x81, 0x14, 0xd2, 0x8f, 0x29, 0xe9, 0xc5, 0x14,
    0x0c, 0xff, 0xfb, 0x3b, 0x0b, 0x0c, 0xf7, 0xae, 0x11, 0x25, 0xdd, 0xce,
    0x00, 0x16, 0x15, 0x02, 0x06, 0x27, 0x5b, 0x55, 0xe3, 0x18, 0xb6, 0xde,
    0xf3, 0xe3, 0xfe, 0x08, 0x3e, 0xd1, 0xdd, 0xd0, 0x1e, 0x07, 0x49, 0x2e,
    0xda, 0x0e, 0x2e, 0xe1, 0x2b, 0x00, 0xf5, 0x8d, 0xf9, 0x02, 0xff, 0x57,
    0xfa, 0x25, 0x54, 0xc0, 0xdb, 0x1a, 0xe2, 0xe6, 0xed, 0x1c, 0x14, 0x06,
    0xf2, 0x01, 0x1e, 0xd8, 0x81, 0x0e, 0x1b, 0xdb, 0xf7, 0xd7, 0xfd, 0xf0,
    0x20, 0xee, 0xdc, 0x3c, 0x02, 0x12, 0x0b, 0xd1, 0x14, 0x21, 0xec, 0x49,
    0x21, 0x16, 0x24, 0xed, 0x43, 0xf4, 0xe2, 0xeb, 0xef, 0x0b, 0x04, 0xf4,
    0x9c, 0x0c, 0x0e, 0x9b, 0xa9, 0xf3, 0xf5, 0xed, 0x0e, 0x0f, 0xf2, 0x0f,
    0x04, 0xf7, 0xd9, 0x2b, 0xfc, 0x12, 0xf7, 0x1c, 0xf7, 0x02, 0x02, 0xea,
    0x34, 0x1d, 0x2f, 0xf3, 0xeb, 0xfe, 0x21, 0x06, 0x00, 0x06, 0x11, 0xe7,
    0x1f, 0xe7, 0x0d, 0xdd, 0xee, 0xf8, 0x10, 0x1a, 0xea, 0xf0, 0x12, 0xe9,
    0xd8, 0x14, 0x03, 0x15, 0xe1, 0x1a, 0xff, 0x02, 0x31, 0x0c, 0xf9, 0x00,
    0xdd, 0x0a, 0x12, 0xef, 0x16, 0x1c, 0x2b, 0x24, 0x10, 0x07, 0xff, 0x28,
    0x10, 0xe4, 0x08, 0x20, 0xbc, 0xfb, 0x3b, 0x94, 0xca, 0x99, 0xc9, 0x81,
    0xe3, 0xc5, 0x63, 0x2a, 0x99, 0xde, 0x03, 0x87, 0xcf, 0xd2, 0x6b, 0x03,
    0x25, 0x2e, 0x49, 0x0c, 0x39, 0x95, 0x3d, 0xe4, 0x1c, 0x28, 0x36, 0xaf,
    0x06, 0xe3, 0x47, 0xff, 0xa8, 0x21, 0xbd, 0xea, 0x67, 0x0e, 0x88, 0xb3,
    0xe8, 0xe2, 0xf8, 0x8c, 0x2e, 0x3f, 0x31, 0x1c, 0x9e, 0xe9, 0x16, 0xd7,
    0x2b, 0x98, 0xc5, 0xa6, 0x05, 0x42, 0xd6, 0x91, 0x93, 0xf7, 0x9b, 0xb9,
    0xa6, 0x02, 0x35, 0x86, 0xfa, 0x17, 0x9a, 0x2f, 0x31, 0xe0, 0x82, 0xcc,
    0x32, 0xa2, 0xf8, 0xa6, 0x4f, 0x17, 0x4f, 0xe7, 0xa4, 0x9e, 0x2c, 0x68,
    0xee, 0xd1, 0x1b, 0x32, 0x40, 0x85, 0xb6, 0x55, 0x64, 0x87, 0xfd, 0x0b,
    0x8d, 0x46, 0x69, 0x42, 0xbe, 0x79, 0x6f, 0xdd, 0xa2, 0x56, 0xf1, 0x14,
    0x19, 0x02, 0x96, 0xe3, 0x52, 0x3c, 0xc3, 0xb5, 0x60, 0xdf, 0xe2, 0x8c,
    0x74, 0x83, 0x5b, 0xad, 0xfc, 0x89, 0x19, 0xeb, 0xed, 0x60, 0xc9, 0xe9,
    0xf5, 0xfe, 0x34, 0xcb, 0xc2, 0xaa, 0xf2, 0xfe, 0x64, 0x9d, 0xd9, 0x70,
    0x92, 0x91, 0x02, 0x1b, 0xe3, 0x97, 0x90, 0xd6, 0x44, 0x87, 0x3c, 0xcd,
    0x99, 0x23, 0x38, 0xe8, 0x02, 0x36, 0x73, 0x44, 0xff, 0xa5, 0xa1, 0x85,
    0xda, 0x33, 0xc0, 0xfd, 0x0f, 0xc2, 0xd3, 0xdd, 0x29, 0xaf, 0xa2, 0x23,
    0x9e, 0xe6, 0xdc, 0x55, 0xbe, 0x6e, 0xec, 0xd5, 0x81, 0xe3, 0x3e, 0xac,
    0x03, 0x0f, 0xc9, 0xf6, 0x53, 0x12, 0x18, 0x11, 0x46, 0x9e, 0x3b, 0xc0,
    0xae, 0x12, 0xce, 0x90, 0x11, 0xfd, 0xe2, 0xdd, 0x27, 0x1c, 0x05, 0x3c,
    0xfa, 0x1d, 0x50, 0xc7, 0xe4, 0x11, 0x2c, 0x0a, 0x12, 0x0e, 0x12, 0x00,
    0xfc, 0xd9, 0x46, 0xec, 0xdc, 0x0a, 0x17, 0x09, 0x0c, 0xec, 0xe8, 0x0d,
    0x0d, 0xd5, 0xcb, 0x38, 0x25, 0xf4, 0xec, 0xe4, 0x03, 0xea, 0x12, 0xbc,
    0x1a, 0x48, 0x3e, 0xed, 0x1e, 0x1f, 0x1f, 0x3b, 0x20, 0x04, 0xf2, 0xcc,
    0xe4, 0xdf, 0xcf, 0x3d, 0x58, 0x0d, 0xc0, 0xfb, 0xd2, 0x0d, 0xcd, 0x19,
    0x81, 0x1f, 0xef, 0xe4, 0xad, 0x1a, 0xd4, 0x02, 0x16, 0xd0, 0xf1, 0x22,
    0x2e, 0x1b, 0xdf, 0xf2, 0xe5, 0x09, 0x03, 0x23, 0xc1, 0xdd, 0x22, 0xe6,
    0x00, 0xf0, 0xef, 0x10, 0xc9, 0xdd, 0xe7, 0xfb, 0xe7, 0x21, 0x05, 0xb1,
    0xcb, 0xd3, 0x0e, 0xf9, 0x9d, 0xce, 0x21, 0xf7, 0xfa, 0xf2, 0x12, 0xd5,
    0x13, 0xcd, 0xd6, 0x0f, 0xb7, 0xdd, 0x2a, 0xf7, 0xdd, 0x10, 0x1c, 0xd6,
    0x0c, 0xd0, 0xd2, 0xc9, 0xe2, 0xc9, 0xd8, 0xe4, 0xb4, 0x1d, 0xc9, 0xf0,
    0x29, 0xef, 0xdf, 0xc2, 0x87, 0x14, 0xf1, 0xb7, 0x4a, 0xe7, 0xf7, 0x0a,
    0x1c, 0x53, 0x31, 0x08, 0x09, 0x16, 0xc9, 0xa4, 0x7f, 0x4f, 0xd1, 0x13,
    0x15, 0xe8, 0xe7, 0x23, 0x59, 0x4f, 0xe7, 0x0b, 0xc6, 0xfe, 0x9a, 0x34,
    0xf0, 0x2e, 0xf6, 0x15, 0x36, 0xe8, 0x2f, 0xfb, 0x01, 0x37, 0x55, 0x0a,
    0x43, 0xfd, 0x48, 0xd3, 0x02, 0x21, 0x1a, 0x00, 0xfe, 0x10, 0x00, 0x06,
    0xeb, 0x02, 0xfc, 0x0e, 0x19, 0x34, 0xdb, 0xc4, 0x0b, 0x2d, 0x00, 0xf6,
    0xb0, 0x40, 0x1d, 0x16, 0xf1, 0x01, 0x32, 0xe1, 0x3c, 0x03, 0xea, 0xea,
    0x52, 0xfc, 0xd0, 0x7f, 0x1f, 0x3d, 0x10, 0x11, 0x06, 0x68, 0xdc, 0x58,
    0x1b, 0xcf, 0x62, 0x39, 0x1f, 0xe4, 0xf7, 0x19, 0x0f, 0xdc, 0x01, 0x08,
    0xb7, 0x1c, 0x30, 0xd4, 0x1b, 0xf0, 0xdf, 0xd3, 0xea, 0xfd, 0xca, 0x18,
    0xd0, 0x06, 0xd8, 0xf2, 0x03, 0x07, 0xf2, 0x04, 0x9f, 0xec, 0x23, 0x0e,
    0x2b, 0xe4, 0x0c, 0xe2, 0xb1, 0xc7, 0xea, 0x19, 0x17, 0xc0, 0x48, 0x99,
    0x1c, 0xfc, 0xe0, 0xd5, 0x33, 0xf0, 0x23, 0xf2, 0xd7, 0xf2, 0x24, 0x23,
    0xf2, 0x19, 0x1d, 0xd5, 0xf7, 0x16, 0x1e, 0x09, 0xf7, 0x9a, 0xdc, 0xef,
    0xf1, 0x06, 0xfb, 0x0f, 0x1a, 0x2f, 0xed, 0xfe, 0x31, 0xe3, 0xf4, 0xe3,
    0x0d, 0x26, 0xcc, 0x08, 0x49, 0x20, 0xef, 0x42, 0xf4, 0xf7, 0x11, 0xef,
    0x12, 0xe0, 0x05, 0xe6, 0x18, 0xfd, 0xf1, 0x35, 0xc5, 0xd2, 0xec, 0xe7,
    0xe0, 0x3b, 0xe9, 0x14, 0xe2, 0x23, 0x3b, 0x31, 0x15, 0x1e, 0x1b, 0xc9,
    0x0b, 0xfe, 0x3a, 0x29, 0xd2, 0x04, 0x0f, 0x03, 0xf5, 0x02, 0xf5, 0x23,
    0xe0, 0x91, 0xbc, 0xcf, 0xd0, 0x18, 0xfb, 0xcb, 0xd5, 0xe3, 0x28, 0x7f,
    0xeb, 0x1f, 0x20, 0xa3, 0xe2, 0xf0, 0xdf, 0xca, 0x28, 0xbc, 0x68, 0x07,
    0xf5, 0xf8, 0xfb, 0xe2, 0x14, 0xf9, 0x29, 0xdb, 0x00, 0x37, 0xb7, 0xdd,
    0xf3, 0xfe, 0xd9, 0x67, 0x0a, 0x1a, 0x01, 0xf1, 0xbb, 0xf8, 0xe8, 0x1c,
    0xf9, 0x02, 0xfc, 0x47, 0x19, 0xf5, 0x09, 0xd7, 0x1c, 0x0e, 0xfb, 0x1c,
    0xe0, 0x4e, 0x17, 0xf2, 0x0f, 0xf1, 0xe4, 0xcd, 0x24, 0x03, 0x0d, 0x1c,
    0xe8, 0x09, 0x0c, 0xa7, 0xe7, 0xe8, 0x1b, 0xed, 0xe4, 0x24, 0xe8, 0x2f,
    0x0c, 0xef, 0x3d, 0xe1, 0x81, 0xeb, 0x22, 0xe4, 0x05, 0x04, 0x13, 0xf4,
    0x27, 0xf7, 0x02, 0x0b, 0x09, 0xfa, 0xda, 0xe3, 0xff, 0xf5, 0xfe, 0x08,
    0x13, 0x1a, 0x07, 0xe0, 0x02, 0xfe, 0x10, 0x21, 0xe4, 0xfc, 0x08, 0xca,
    0xed, 0xec, 0x25, 0x26, 0x13, 0xe2, 0x00, 0x27, 0x13, 0xe6, 0x0a, 0xd1,
    0xf2, 0xe3, 0xe5, 0x1c, 0xd7, 0x2d, 0xf3, 0xf0, 0xfc, 0xde, 0xff, 0x0b,
    0x06, 0x05, 0xef, 0x0d, 0x01, 0x26, 0x11, 0x18, 0xf2, 0xc7, 0xff, 0xdc,
    0xe0, 0x23, 0xf2, 0x17, 0x24, 0x15, 0xf6, 0x10, 0x07, 0xfd, 0xf5, 0xf5,
    0xea, 0x0c, 0xf9, 0xdb, 0x0b, 0x08, 0x17, 0xf6, 0xfd, 0x0e, 0x0d, 0xf2,
    0x32, 0x12, 0xdb, 0x45, 0xfc, 0x0d, 0x13, 0x02, 0x13, 0x81, 0x04, 0x0e,
    0xf9, 0xba, 0xda, 0x38, 0x3a, 0xfb, 0x06, 0xfe, 0x23, 0xb7, 0x12, 0x19,
    0xd7, 0x10, 0x18, 0xd5, 0xf6, 0x0a, 0xe5, 0xf9, 0xed, 0x10, 0xe1, 0xf3,
    0xec, 0xf6, 0xbe, 0x12, 0x1e, 0xf7, 0xfd, 0xf0, 0xd5, 0xcb, 0x0e, 0x0e,
    0x15, 0xc1, 0xee, 0xf5, 0xe4, 0xf0, 0x14, 0x2e, 0x1b, 0xe2, 0x2e, 0xe4,
    0xff, 0x11, 0x15, 0xd3, 0x19, 0xfc, 0x1a, 0xee, 0xe8, 0x23, 0xeb, 0x10,
    0xe1, 0xfe, 0x1a, 0xe7, 0xf0, 0x12, 0x21, 0xdc, 0xe5, 0x09, 0xfc, 0x1d,
    0x0a, 0x20, 0x18, 0xee, 0xe8, 0x1a, 0x0a, 0xe1, 0x12, 0x1b, 0x08, 0x18,
    0x2b, 0x1e, 0x11, 0xfb, 0xc0, 0xfd, 0x08, 0xea, 0x17, 0xcb, 0x09, 0xfe,
    0x12, 0x05, 0x15, 0x2e, 0x12, 0xfb, 0x0c, 0x17, 0x1e, 0x81, 0x29, 0x1f,
    0x11, 0xaa, 0xf6, 0xf8, 0x1f, 0xd8, 0x02, 0x25, 0x0a, 0xa8, 0x2c, 0xfb,
    0xf5, 0xf0, 0x06, 0xb5, 0x2d, 0x14, 0xf3, 0xf3, 0x18, 0x29, 0xfb, 0xba,
    0x1d, 0x3b, 0x2c, 0xe1, 0xe5, 0xfa, 0x13, 0xea, 0x02, 0x1c, 0xef, 0x22,
    0xcb, 0xe3, 0xfa, 0x3a, 0xf4, 0xf3, 0xe6, 0x0f, 0xd1, 0xef, 0xfc, 0x3a,
    0xc9, 0x13, 0x25, 0xb5, 0x95, 0x05, 0xda, 0xff, 0x13, 0x00, 0xe9, 0xe4,
    0x50, 0x09, 0xe8, 0x1b, 0xf0, 0x29, 0xe6, 0xeb, 0xb3, 0x37, 0x0e, 0x1f,
    0xd9, 0x1d, 0x2d, 0x33, 0xee, 0xfa, 0xe7, 0xd5, 0x03, 0xff, 0xff, 0x08,
    0xc6, 0x11, 0x0e, 0xf0, 0xe0, 0xf9, 0x05, 0xf9, 0xf8, 0xf7, 0x29, 0x1e,
    0xeb, 0x0f, 0x03, 0xf5, 0xef, 0x0a, 0xf8, 0xfd, 0x16, 0x81, 0x19, 0xc6,
    0x0b, 0x01, 0xa5, 0xeb, 0xfa, 0x23, 0xf4, 0xe4, 0xed, 0xab, 0xfe, 0x0b,
    0x35, 0x05, 0xc5, 0x0d, 0x16, 0xfe, 0x4b, 0x0b, 0xf6, 0x1e, 0x1e, 0xe1,
    0xef, 0xfa, 0x32, 0x1b, 0x15, 0xfb, 0x37, 0x05, 0x5e, 0x0a, 0x01, 0xf3,
    0xfe, 0x16, 0x14, 0x20, 0x18, 0x27, 0x10, 0xeb, 0xcb, 0x0e, 0xa3, 0x3a,
    0xfb, 0x15, 0x2b, 0x3f, 0xe7, 0x06, 0xdc, 0x10, 0x0a, 0x09, 0xf0, 0xfa,
    0xdd, 0x1b, 0xff, 0xf6, 0xf5, 0xfe, 0xf0, 0x09, 0x12, 0x0c, 0xf8, 0xe7,
    0x1b, 0xf0, 0x0c, 0xd4, 0xf2, 0xe0, 0x02, 0x01, 0xd3, 0x06, 0x06, 0x03,
    0xd8, 0xe7, 0x15, 0x00, 0xc1, 0x10, 0x30, 0xfc, 0xc0, 0xe9, 0x1d, 0xfe,
    0xeb, 0x31, 0xeb, 0x46, 0x19, 0x0b, 0x0a, 0xdf, 0x06, 0xf6, 0xff, 0xe5,
    0x1a, 0x26, 0xcf, 0x09, 0x36, 0x02, 0xea, 0xd8, 0xe8, 0xdc, 0xfc, 0x0e,
    0xf2, 0x1c, 0xfe, 0x10, 0x02, 0x22, 0x3e, 0x32, 0xf5, 0xea, 0x26, 0xe7,
    0xc9, 0xe6, 0x07, 0x04, 0xeb, 0x47, 0x46, 0x43, 0x29, 0xff, 0xe9, 0xd3,
    0xf4, 0x08, 0x05, 0xf7, 0xd3, 0x01, 0x37, 0xec, 0xc6, 0xe3, 0xcb, 0xff,
    0x64, 0xdd, 0x34, 0x12, 0x0c, 0xf9, 0xc1, 0x24, 0xe8, 0x14, 0x0c, 0xf7,
    0xd1, 0x29, 0xeb, 0xe7, 0xdb, 0x1b, 0xb9, 0xee, 0x43, 0x41, 0xf9, 0x06,
    0xf0, 0xd3, 0x28, 0x81, 0xce, 0xef, 0xf7, 0xda, 0x0a, 0x1b, 0xec, 0x59,
    0x07, 0xaf, 0x0a, 0xf3, 0x09, 0x1f, 0xeb, 0x17, 0xf8, 0xe9, 0xf8, 0xfd,
    0xb6, 0x02, 0x10, 0xd3, 0xcd, 0xed, 0xfe, 0x27, 0x10, 0x81, 0x28, 0xda,
    0x13, 0xc0, 0xc5, 0x0a, 0xc3, 0xf9, 0x31, 0x16, 0xed, 0xaa, 0x13, 0xda,
    0x38, 0xdd, 0xdc, 0x21, 0x15, 0x29, 0x0b, 0xf0, 0x1b, 0x02, 0x01, 0x1b,
    0xf4, 0xec, 0x39, 0xef, 0x08, 0x07, 0x07, 0xdd, 0x28, 0xdf, 0xf9, 0xf9,
    0xf0, 0x0d, 0xe5, 0x23, 0x16, 0x13, 0xfd, 0x12, 0x01, 0x16, 0xdb, 0xfc,
    0xe1, 0xff, 0xe8, 0x12, 0x21, 0xf0, 0x0b, 0xe0, 0xf4, 0xed, 0x00, 0x12,
    0x02, 0x1d, 0x43, 0xe4, 0x1e, 0xe2, 0x15, 0xde, 0xe9, 0x0c, 0x06, 0x10,
    0x1b, 0x26, 0x1e, 0xfc, 0xe7, 0xf7, 0xdc, 0xe2, 0xfc, 0x1b, 0xf2, 0x17,
    0xd5, 0x24, 0x32, 0xf1, 0xbd, 0x04, 0xe8, 0xda, 0x42, 0xe6, 0xc3, 0x0d,
    0x09, 0xcb, 0xfd, 0x00, 0xef, 0x07, 0xed, 0x0f, 0xde, 0x3a, 0xfa, 0x11,
    0xff, 0xe7, 0x65, 0xf6, 0xcd, 0xf5, 0x63, 0x7f, 0x1d, 0x55, 0x26, 0xc1,
    0xff, 0xd7, 0x1b, 0x22, 0x0d, 0xf4, 0x96, 0x9c, 0xee, 0xe0, 0xc4, 0x49,
    0xe8, 0xfa, 0xed, 0xcb, 0x10, 0xd5, 0xda, 0x8e, 0xdf, 0x00, 0x20, 0x36,
    0x02, 0x2f, 0x2d, 0x14, 0x04, 0x0d, 0xd1, 0xe9, 0x21, 0xd7, 0x79, 0x06,
    0xd2, 0x04, 0xda, 0xdf, 0x0e, 0x24, 0x2c, 0x1e, 0x19, 0xfe, 0xf9, 0xfa,
    0x3a, 0xe1, 0xee, 0x0c, 0x26, 0x05, 0x36, 0x05, 0x8a, 0xb1, 0x19, 0x02,
    0xf9, 0x3a, 0x06, 0x68, 0x1c, 0x07, 0xca, 0x14, 0xf3, 0x02, 0xee, 0xe6,
    0xbf, 0x71, 0x00, 0xf8, 0x42, 0x12, 0xf9, 0x1e, 0x0a, 0x08, 0xdc, 0x1c,
    0x1b, 0xe5, 0xfc, 0xde, 0x11, 0xfa, 0x01, 0x16, 0xdf, 0xa3, 0x05, 0xe5,
    0xd6, 0xd6, 0x18, 0x23, 0xfb, 0xf3, 0x35, 0x4f, 0x16, 0xfb, 0x2f, 0xfd,
    0x07, 0xd8, 0x0a, 0x27, 0xd6, 0xf9, 0x09, 0x06, 0xe5, 0x16, 0xed, 0x08,
    0xde, 0xae, 0xab, 0xe7, 0x04, 0xe2, 0xf6, 0xe0, 0xb9, 0xd1, 0x18, 0x67,
    0xe4, 0x13, 0x1a, 0xbd, 0xd9, 0xd3, 0xd5, 0xe2, 0x17, 0xc7, 0x7f, 0x03,
    0xf5, 0x2d, 0xee, 0xf1, 0x05, 0x21, 0x3f, 0xe3, 0x14, 0x3b, 0xb7, 0xef,
    0xf0, 0xe1, 0x02, 0x45, 0x04, 0x21, 0x2b, 0xf7, 0xa9, 0xd1, 0xd0, 0xfb,
    0xf7, 0x25, 0xf4, 0x4f, 0x1a, 0x03, 0xe5, 0xcd, 0x2f, 0xff, 0x10, 0x20,
    0xe6, 0x5d, 0x12, 0xde, 0xda, 0xfb, 0xc3, 0xdc, 0x35, 0xf0, 0x0a, 0xef,
    0xdd, 0xe4, 0x18, 0xcb, 0x08, 0xe3, 0xd7, 0xdb, 0x2d, 0x2e, 0x0c, 0x3e,
    0xce, 0x25, 0x46, 0x00, 0x4c, 0x3a, 0x0a, 0xef, 0x1c, 0xe2, 0x01, 0xc8,
    0x0b, 0x00, 0xeb, 0x05, 0xe2, 0xb5, 0xcf, 0xa3, 0x15, 0xf4, 0x29, 0x1e,
    0x07, 0x09, 0x08, 0xe6, 0x08, 0xfa, 0xdf, 0x81, 0xca, 0x01, 0x23, 0x15,
    0xed, 0x06, 0x27, 0xd0, 0xff, 0x13, 0xc3, 0xb4, 0xe3, 0x07, 0xed, 0xdc,
    0xf0, 0xe8, 0xca, 0x05, 0xd6, 0xd4, 0x25, 0x29, 0xe9, 0xd9, 0x28, 0xfe,
    0x11, 0x1c, 0x0a, 0xfb, 0xf7, 0xdd, 0xf0, 0x06, 0xf3, 0x1e, 0x1d, 0x1c,
    0x02, 0x35, 0x45, 0xf1, 0xd2, 0x48, 0xf4, 0x02, 0xf5, 0xff, 0xfd, 0x0e,
    0x0b, 0xc2, 0xf8, 0x14, 0x3a, 0x04, 0xe0, 0x05, 0x17, 0xf6, 0x03, 0x05,
    0xee, 0x20, 0x2a, 0xe8, 0xfd, 0x0a, 0x05, 0x02, 0xf4, 0x34, 0x03, 0x01,
    0xda, 0x08, 0x09, 0x36, 0xd6, 0xe8, 0x38, 0xf7, 0x07, 0x1a, 0xf2, 0xcf,
    0xf2, 0x13, 0x1e, 0x41, 0x02, 0x30, 0xde, 0x0c, 0x1b, 0xe4, 0x0a, 0x28,
    0x1e, 0xee, 0xfa, 0xb4, 0x05, 0x3b, 0xde, 0x10, 0xbb, 0x12, 0xf9, 0x11,
    0xf2, 0x0c, 0xee, 0xde, 0xf5, 0xe6, 0x0c, 0x36, 0x12, 0xf6, 0x3c, 0x81,
    0xe4, 0xe5, 0xe4, 0xf9, 0x06, 0xf9, 0x12, 0xda, 0x03, 0xf0, 0x24, 0x20,
    0xeb, 0xf2, 0xf2, 0xeb, 0x03, 0xf1, 0xf7, 0xdf, 0xe6, 0x2a, 0xfd, 0x4a,
    0x14, 0x0f, 0x17, 0xe5, 0xdc, 0x14, 0xfc, 0xe8, 0x16, 0xf1, 0xe2, 0x08,
    0x30, 0x01, 0x04, 0xe2, 0x81, 0x01, 0x07, 0xb0, 0x06, 0xec, 0x05, 0xe3,
    0x44, 0xd0, 0xe5, 0x34, 0xd0, 0xfd, 0x1d, 0xf9, 0x1d, 0x09, 0x0d, 0x21,
    0x17, 0xe9, 0x20, 0x18, 0x41, 0xfc, 0xd3, 0x18, 0x0a, 0xf9, 0xf2, 0xf4,
    0xae, 0xfc, 0x07, 0x96, 0x86, 0xea, 0xa6, 0x9d, 0x13, 0x05, 0xc7, 0x11,
    0x0b, 0x31, 0xf8, 0x39, 0x11, 0xf8, 0xf5, 0xad, 0x01, 0xfc, 0xed, 0x15,
    0x16, 0xdb, 0x0c, 0xf1, 0x05, 0x2a, 0xe9, 0x3f, 0x14, 0xeb, 0x0d, 0x05,
    0x1c, 0xe1, 0xe8, 0xbb, 0x41, 0x0c, 0x2d, 0x3e, 0xeb, 0x0f, 0x2b, 0x06,
    0xfb, 0x22, 0x37, 0xfb, 0xe8, 0xf8, 0x4a, 0xf7, 0xf8, 0xff, 0x16, 0x16,
    0xf3, 0x1b, 0x29, 0x2f, 0xe8, 0x02, 0x29, 0x01, 0xea, 0x09, 0xfa, 0xfc,
    0xea, 0x31, 0xf8, 0x04, 0x12, 0xed, 0x33, 0xfa, 0x00, 0x02, 0x3b, 0xe3,
    0xc9, 0x33, 0xd4, 0x07, 0x1b, 0x1d, 0x36, 0xf0, 0x3b, 0x9e, 0x27, 0x16,
    0x07, 0xad, 0xe3, 0x48, 0x2a, 0x01, 0xe0, 0xb1, 0xfb, 0x91, 0xfb, 0x0b,
    0xfb, 0x1b, 0xf0, 0x09, 0xf6, 0x28, 0x22, 0x13, 0xf4, 0x16, 0x0f, 0xe5,
    0xcd, 0x07, 0xe2, 0x31, 0x00, 0x15, 0x36, 0x00, 0xe9, 0x29, 0xf3, 0xc7,
    0x0d, 0xe0, 0xf5, 0x03, 0x07, 0x00, 0x08, 0x09, 0xeb, 0x1f, 0xae, 0xda,
    0x4a, 0x03, 0x15, 0xf1, 0x1c, 0x0a, 0xea, 0x18, 0xce, 0xf2, 0x0a, 0x09,
    0xbe, 0x3e, 0x17, 0xab, 0xdb, 0x1d, 0xd2, 0x0d, 0x3f, 0x23, 0x2b, 0xfc,
    0x04, 0x02, 0x46, 0x81, 0xcb, 0x13, 0x22, 0x14, 0x0a, 0xe5, 0xd4, 0x2d,
    0x3f, 0xb2, 0xec, 0x01, 0x00, 0xdf, 0xf1, 0xd0, 0x24, 0x0a, 0x43, 0x0b,
    0xf7, 0x14, 0x0f, 0xfb, 0x2b, 0x48, 0x41, 0xe7, 0x23, 0x7f, 0x08, 0x5e,
    0xfa, 0x01, 0x54, 0x1e, 0x2e, 0xd2, 0xe2, 0x9b, 0xeb, 0xa9, 0xe9, 0xe6,
    0xd7, 0x1a, 0xe6, 0xf7, 0xef, 0xe8, 0xde, 0xae, 0x01, 0x04, 0x08, 0x0f,
    0x0d, 0x3a, 0xf2, 0x20, 0xfc, 0x2f, 0xe7, 0x0a, 0xda, 0x3f, 0xd3, 0xfb,
    0x47, 0xc1, 0x03, 0x13, 0xee, 0xd3, 0xee, 0x4e, 0xec, 0xa6, 0xf3, 0x8c,
    0x10, 0xc5, 0xbe, 0xf7, 0x15, 0xfe, 0xfb, 0x15, 0xd2, 0xc7, 0x40, 0x0a,
    0xc9, 0x33, 0x45, 0xdd, 0xb7, 0x20, 0x07, 0x4a, 0x44, 0xde, 0xf8, 0xc4,
    0xe5, 0xf1, 0x07, 0xec, 0xf9, 0x4b, 0x37, 0x4b, 0x1c, 0xa1, 0xf5, 0xb3,
    0x6c, 0xa3, 0xd9, 0x10, 0xd4, 0xff, 0x3c, 0xdd, 0xf2, 0x2d, 0x15, 0x2d,
    0xfe, 0xf4, 0xe5, 0xfb, 0x1c, 0x04, 0x27, 0xe2, 0x09, 0xe3, 0x06, 0x0c,
    0x01, 0xeb, 0x32, 0xe2, 0x0b, 0xe5, 0xf6, 0xf6, 0x05, 0xef, 0xf4, 0x24,
    0x33, 0xff, 0xea, 0xe1, 0xaf, 0xf7, 0x09, 0x24, 0xd0, 0x08, 0xfe, 0xc5,
    0xb9, 0xe3, 0xcd, 0x10, 0xe3, 0xc8, 0x04, 0x21, 0x0c, 0xe5, 0xf5, 0x0a,
    0x08, 0x09, 0x51, 0xff, 0x24, 0xf1, 0x01, 0xe6, 0xf9, 0xf2, 0x2d, 0x0e,
    0x12, 0xee, 0x05, 0x2c, 0xc9, 0x42, 0x05, 0x32, 0x06, 0x0a, 0xcc, 0xf7,
    0xee, 0x0a, 0xee, 0x3a, 0xed, 0x40, 0xf7, 0x2e, 0x11, 0x81, 0x10, 0xa2,
    0xcd, 0x17, 0xe3, 0x20, 0x3f, 0x04, 0xec, 0xee, 0x0b, 0xe2, 0x11, 0x14,
    0x0d, 0x12, 0x0b, 0xe4, 0x47, 0x1d, 0x13, 0x50, 0xea, 0xb7, 0x47, 0xbf,
    0x43, 0x7f, 0x2f, 0xe7, 0xf9, 0x26, 0x33, 0x37, 0x10, 0xc0, 0xef, 0xc7,
    0x05, 0x45, 0xfe, 0x08, 0x2c, 0x1e, 0xf9, 0x0b, 0xb8, 0xf2, 0x11, 0xe9,
    0xc7, 0xfd, 0x35, 0x2f, 0xd2, 0x28, 0x38, 0x0a, 0x1f, 0xbf, 0x27, 0xfa,
    0x1f, 0xed, 0xeb, 0x42, 0xcf, 0x4e, 0x11, 0x2e, 0x33, 0x22, 0xe0, 0x11,
    0xd1, 0xb1, 0xeb, 0xdd, 0xd6, 0x08, 0x26, 0xda, 0xe2, 0xf8, 0x9a, 0x51,
    0xf2, 0xbe, 0x2a, 0xf1, 0xcd, 0xe1, 0xa7, 0xc3, 0xf0, 0x2a, 0xc0, 0x0e,
    0xd3, 0x22, 0xef, 0xf0, 0xff, 0xd8, 0xac, 0xc7, 0xd8, 0x2d, 0x14, 0x48,
    0x11, 0x10, 0x4c, 0x86, 0x8a, 0xc4, 0xfb, 0xdb, 0x15, 0x05, 0x36, 0xcb,
    0x0e, 0xba, 0xe6, 0x02, 0xb8, 0x04, 0x56, 0xe3, 0xf2, 0x55, 0x4a, 0xd7,
    0x87, 0x14, 0x6b, 0x73, 0x87, 0x85, 0xf4, 0xcd, 0xaf, 0x28, 0x9d, 0x8f,
    0x86, 0xbe, 0x81, 0x5d, 0xd3, 0x9a, 0x75, 0xc4, 0xae, 0x1f, 0x91, 0xc0,
    0x78, 0x8d, 0xde, 0xbe, 0xc4, 0xc8, 0x03, 0x9b, 0x3a, 0x90, 0xfd, 0x3a,
    0xcc, 0x18, 0x45, 0x16, 0x0d, 0xb7, 0xc2, 0x3f, 0x90, 0x48, 0xfc, 0xfa,
    0x2b, 0x92, 0x08, 0x40, 0xb5, 0xfc, 0x1f, 0xe8, 0xe4, 0xd0, 0x4f, 0xf0,
    0x7b, 0x08, 0xe6, 0xa0, 0x13, 0x89, 0xa4, 0x5a, 0x54, 0x2a, 0x32, 0xf7,
    0xf5, 0x5f, 0x0e, 0x9e, 0xfe, 0x42, 0x9d, 0x06, 0xc0, 0xed, 0x18, 0x2d,
    0xc6, 0xc3, 0x0d, 0xaf, 0xd8, 0x94, 0x51, 0xeb, 0xd6, 0x09, 0x82, 0x05,
    0x8c, 0x49, 0xa5, 0x82, 0xb7, 0xdf, 0xad, 0x93, 0xf6, 0x0a, 0xd0, 0x32,
    0xd1, 0x00, 0x29, 0xf6, 0xcb, 0xf2, 0xd9, 0xef, 0x1e, 0x1d, 0x12, 0xdf,
    0x1a, 0x02, 0xf9, 0xbc, 0x95, 0xd2, 0x1e, 0xda, 0x05, 0x13, 0x03, 0x0d,
    0x22, 0xcd, 0xdc, 0x10, 0x69, 0x14, 0xfe, 0x06, 0xea, 0x11, 0x2e, 0xcf,
    0x1d, 0x33, 0x4b, 0x81, 0x1a, 0x22, 0x61, 0x5b, 0x1b, 0xa1, 0x07, 0x9e,
    0xcf, 0x1c, 0x1e, 0x1d, 0x43, 0xfe, 0xea, 0xe0, 0xdc, 0x09, 0xcd, 0x38,
    0xd1, 0x0f, 0x18, 0x14, 0xb1, 0x0f, 0xea, 0x10, 0x13, 0xad, 0x04, 0xdc,
    0x4f, 0xf5, 0xcf, 0x2a, 0xca, 0x2a, 0x08, 0x01, 0x12, 0x44, 0xf4, 0x2f,
    0xf2, 0xea, 0xe3, 0x1b, 0xed, 0xdc, 0xf9, 0x11, 0xe6, 0xda, 0xe8, 0x3c,
    0xb3, 0xef, 0x25, 0x08, 0xd0, 0x10, 0xe3, 0xd0, 0x38, 0xb3, 0x12, 0x03,
    0x07, 0xe2, 0xf4, 0x30, 0x09, 0x0e, 0x18, 0xb9, 0x1b, 0x3b, 0x00, 0x12,
    0xf6, 0xf5, 0x53, 0x42, 0x25, 0x17, 0x15, 0x3a, 0xff, 0xe9, 0x08, 0xd9,
    0x03, 0xfc, 0x19, 0x12, 0xcd, 0xc5, 0xe1, 0xb6, 0xf6, 0x0b, 0x2d, 0x36,
    0x07, 0x11, 0x05, 0xdd, 0x0e, 0xf1, 0xc6, 0x81, 0xf3, 0x05, 0x24, 0x02,
    0xee, 0x1b, 0x2d, 0xeb, 0x07, 0x1c, 0xe2, 0xea, 0xf4, 0x12, 0xcf, 0xf0,
    0xd3, 0xec, 0xd4, 0xdd, 0xfa, 0xd1, 0xea, 0x16, 0xfa, 0xf0, 0x22, 0xeb,
    0x0f, 0x1d, 0x15, 0x21, 0xf7, 0xef, 0xe8, 0xf9, 0xd3, 0x02, 0x1a, 0x2b,
    0xfe, 0x24, 0x1a, 0xdb, 0xbb, 0x34, 0x0c, 0x26, 0xe9, 0x12, 0xfc, 0x17,
    0x02, 0xdf, 0x08, 0xfe, 0x81, 0xdb, 0xf4, 0x96, 0xed, 0x1e, 0xe4, 0x3f,
    0xf7, 0xf3, 0xd5, 0x16, 0xf0, 0xf7, 0x24, 0xdb, 0x02, 0xfe, 0xff, 0xfd,
    0x10, 0xe5, 0xfd, 0x06, 0xfb, 0xca, 0xbb, 0xd1, 0x13, 0xeb, 0x2f, 0x11,
    0xe8, 0xf5, 0xe0, 0xd5, 0x09, 0x08, 0xec, 0xff, 0xdc, 0x18, 0xea, 0xea,
    0x04, 0x3f, 0x3a, 0xef, 0xf8, 0x04, 0x1a, 0xec, 0x0e, 0x00, 0xdb, 0xc6,
    0x02, 0x32, 0x30, 0x18, 0x2a, 0x0d, 0xfd, 0x01, 0xd9, 0x11, 0xf1, 0x36,
    0x14, 0x1c, 0x47, 0xcb, 0xf7, 0x3e, 0x05, 0x1a, 0x33, 0xda, 0x27, 0x0f,
    0x21, 0xf6, 0xf9, 0x9e, 0x0d, 0x1f, 0x1d, 0x44, 0x04, 0xa7, 0xf2, 0xb7,
    0xe0, 0xbc, 0xd0, 0x43, 0xfa, 0xfc, 0x25, 0x1b, 0xfd, 0xd8, 0x23, 0xd3,
    0xe1, 0xef, 0x18, 0x25, 0xb0, 0xea, 0xd2, 0xb1, 0x00, 0xe7, 0x04, 0xff,
    0xf7, 0xec, 0x00, 0xeb, 0xf5, 0x0d, 0xdc, 0xc0, 0x15, 0x58, 0x1d, 0x07,
    0xe6, 0x32, 0xea, 0x04, 0xf0, 0xe9, 0x9b, 0x97, 0x11, 0x23, 0xef, 0xec,
    0xa1, 0xd7, 0xbe, 0xd8, 0xd5, 0xe4, 0xbb, 0xdb, 0xe8, 0x18, 0x0c, 0x33,
    0x11, 0x55, 0x43, 0xfe, 0x14, 0x3c, 0xf5, 0xdf, 0x15, 0x0c, 0xe7, 0xee,
    0x23, 0x34, 0x2a, 0x02, 0x3b, 0x37, 0xf6, 0xee, 0xd2, 0x2a, 0x9c, 0x32,
    0xe1, 0x02, 0x2f, 0xbe, 0x21, 0xf0, 0x36, 0x51, 0xfa, 0xaa, 0x52, 0xf3,
    0x01, 0x03, 0x25, 0x17, 0xe0, 0xf5, 0x29, 0x42, 0x42, 0xf0, 0x11, 0xd5,
    0x08, 0xd1, 0x1f, 0x31, 0xc7, 0x02, 0x65, 0x65, 0xf8, 0xf9, 0xe4, 0xcb,
    0x35, 0x81, 0xfa, 0x31, 0x35, 0xfc, 0x0d, 0x40, 0xd7, 0x22, 0xfe, 0xcd,
    0xd1, 0x09, 0xe8, 0x4b, 0x10, 0x0e, 0xf6, 0x23, 0xf5, 0xcb, 0xec, 0xda,
    0xe1, 0x3b, 0xbd, 0x33, 0x36, 0x20, 0x04, 0xf7, 0xeb, 0x1d, 0xe4, 0xf4,
    0xde, 0x12, 0x1e, 0x09, 0xf1, 0x2d, 0x3b, 0x12, 0xf6, 0xfa, 0x0c, 0x20,
    0xcc, 0xc2, 0x04, 0xe0, 0xd2, 0x4c, 0xf3, 0xf3, 0xee, 0xd6, 0x09, 0x43,
    0xfb, 0x0b, 0x1b, 0x9b, 0x81, 0xdc, 0x27, 0xcb, 0x06, 0xf0, 0x38, 0xc8,
    0x48, 0x0b, 0x1c, 0xfa, 0x5d, 0xff, 0x30, 0xe9, 0xf8, 0x16, 0x17, 0xfb,
    0xd3, 0xe0, 0x2c, 0xc8, 0xc9, 0xdb, 0xee, 0xea, 0x43, 0x24, 0xe3, 0x40,
    0x26, 0xf9, 0xf1, 0xcf, 0xf7, 0xf5, 0xef, 0xfb, 0xf6, 0xf1, 0xfa, 0x17,
    0x1f, 0x0b, 0xef, 0x12, 0xfa, 0xec, 0xe8, 0x34, 0x11, 0x87, 0x13, 0xda,
    0xfa, 0x28, 0x00, 0x05, 0xfb, 0xf9, 0xea, 0x07, 0xf8, 0x1f, 0x06, 0xe2,
    0xea, 0x37, 0xe0, 0xe8, 0x1b, 0x17, 0x0a, 0x05, 0xe4, 0x02, 0x11, 0xc5,
    0xf3, 0x10, 0x10, 0x17, 0xea, 0x1d, 0x0c, 0x0b, 0x0e, 0xc1, 0x28, 0x08,
    0x12, 0xf7, 0x12, 0x06, 0xf4, 0x3d, 0x0b, 0x0f, 0x09, 0x47, 0xf9, 0xf0,
    0xeb, 0x1a, 0x28, 0xf8, 0xe9, 0x21, 0x19, 0xe2, 0xce, 0xfc, 0xc3, 0x11,
    0xfc, 0xd3, 0x18, 0xfc, 0xea, 0xec, 0xdc, 0xff, 0xf9, 0xec, 0x10, 0x04,
    0xfe, 0x25, 0xe9, 0x1f, 0xde, 0xf8, 0xbb, 0xc8, 0x10, 0x7f, 0xfa, 0x71,
    0x08, 0x00, 0x52, 0xab, 0x9d, 0x19, 0x0a, 0xe7, 0x0b, 0x13, 0xdf, 0x1e,
    0x0c, 0x93, 0x00, 0x10, 0x09, 0xf4, 0x2f, 0x18, 0x2b, 0xda, 0x08, 0x11,
